2 0 d b 1 a 4 9 5 9
1 2 0 1 c 1 0 3 0 c
0 0 2 b 0 3 9 c 4 3
c 1 c 3 a 2 a 2 a 1
2 1 2 3 2 c 0 c 0 3
a 0 2 1 0 0 2 0 9 a
d 3 3 2 9 3 1 3 0 b
0 0 3 0 c 1 0 9 0 4
0 d 9 b b c d 1 5 4
c 0 0 1 3 0 d 0 1 3
d a b 0 2 3 9 0 4 9
0 1 3 4 e 2 9 4 c d
2 1 d 9 0 1 0 9 0 0
3 1 0 c 2 1 2 2 1 b
1 2 3 2 2 c 9 4 9 c
4 1 1 a c 0 0 b 4 4
3 2 4 1 a 9 0 0 4 0
0 0 0 9 9 4 0 d 4 9
0 0 0 0 3 b 0 0 c 9
c b 0 9 0 a a 9 4 a
4 c 5 0 0 a d 4 1 e
3 9 2 9 a 4 c 2 0 d
0 a 2 2 2 9 4 b 9 9
c 0 a 5 1 e c 4 d c
c b a c a 2 0 c 3 5
9 0 1 9 b c 1 0 a c
b 2 c 0 2 0 0 0 c 1
1 0 2 4 0 0 9 c 1 0
0 9 3 2 b c d 3 0 1
9 1 2 9 0 1 b 9 1 5
e a 2 1 0 4 b d c 1
b 0 b 4 0 1 3 4 9 1
5 3 0 9 c d 1 0 0 9
1 b 2 0 b 1 2 2 c 4
c 0 a 4 9 1 0 0 3 1
3 0 5 c 0 0 c 5 b 9
4 0 9 3 1 3 2 c 0 3
4 2 9 1 a 2 9 0 c 4
2 c 2 3 a 1 d 0 4 2
1 2 3 0 9 0 b 2 0 b
0 9 c 0 0 a 0 0 4 3
9 b 1 1 2 0 b 0 2 4
1 0 e 0 0 0 3 a 4 0
c 2 0 c 2 a 3 9 3 4
a 0 2 d e 5 2 3 1 9
a 2 0 2 b b b 4 3 0
b a 1 a 9 2 4 c c 9
0 2 a b 0 0 1 1 d 4
1 0 9 0 2 c 9 0 a 3
1 0 0 0 1 3 0 c c b
0 1 3 1 1 b 9 9 4 c
4 2 0 a 0 9 9 5 9 0
0 0 0 c a 0 2 a 4 1
c 9 0 2 1 2 3 2 2 0
3 0 c 1 2 b 9 9 0 2
5 0 2 9 1 c 0 9 3 0
a 0 c e 9 0 4 9 9 b
1 2 b 1 a 4 2 0 0 0
1 0 1 c 0 b b a c 0
0 0 b c 1 4 e 2 1 1
1 3 3 4 3 0 3 0 2 3
4 0 2 b 0 a 3 1 c a
4 b c 9 0 9 3 c 2 0
5 2 b 2 9 c 2 0 b 4
a 0 c 4 0 d 0 a a 5
0 0 0 9 a 3 1 1 1 d
3 a b 2 0 0 9 1 b a
0 a c 3 9 a 3 4 e 2
0 1 a c 0 a 4 b a 1
e 1 1 0 0 a 3 4 c 2
3 2 2 1 a b 9 9 0 2
4 2 c 1 2 0 4 2 a 0
a 9 2 9 c 9 1 1 3 d
2 0 2 c 9 0 c 1 b 5
0 1 0 a 4 4 b b 1 a
0 b a 4 b c c 0 2 2
3 0 2 b b 3 a b 3 2
a b b 2 a c 2 1 4 2
9 9 c 2 0 2 b 0 2 a
3 1 a 4 0 4 2 c 0 c
c 0 9 0 0 3 b 0 1 9
b 0 2 1 a 3 2 4 a d
3 0 9 0 0 c c 9 0 1
c 1 4 c 3 3 c 0 c 0
b a 1 0 a 4 c 9 a 0
d 1 0 a 0 4 d 0 c 1
3 b a 0 0 0 2 3 2 3
0 4 0 0 a 2 c b d 6
c c 3 a 9 0 d 4 b 2
a a 1 4 c 1 b b 1 2
1 b b 9 c 2 2 9 b 0
3 e 0 9 1 4 4 3 b 4
2 0 1 4 2 1 2 3 a 9
a 0 a d 0 2 a 9 9 0
b 1 0 1 2 9 3 0 c c
a 0 1 2 0 b 9 9 2 2
3 9 c a b 0 0 d 2 3
3 c 4 2 0 2 0 e d 5
0 a 4 b c 0 1 1 3 e
1 a 3 1 1 9 d 0 9 0
0 9 0 c 9 b 4 1 0 1
2 9 3 9 9 b 4 3 0 1
2 2 2 c 9 a 9 b c 0
d 0 3 0 2 2 c b 4 9
0 0 4 9 4 0 c 9 3 a
b c 1 9 a c d 0 3 1
3 9 0 a 1 b c 2 0 b
0 9 9 3 c 3 0 9 2 a
4 a b b 0 9 0 1 9 2
4 9 0 1 0 0 9 0 d b
c 0 c 1 c 2 1 0 9 2
5 3 9 0 1 2 4 2 e 4
e a a 1 0 3 c b 2 1
1 2 3 0 1 a c 3 c 4
d 0 c 4 2 0 2 0 2 b
1 0 a 3 2 c 0 0 0 c
c b 0 3 0 b 2 9 0 c
c 0 9 3 0 9 1 0 1 b
c 0 1 a 9 b 2 0 1 3
2 a c 9 1 2 9 0 5 9
2 3 1 1 3 a 1 1 a a
1 0 d b 9 0 c 2 4 b
4 1 2 2 a 2 0 c b 6
1 9 d d 3 4 9 0 9 9
2 0 c c 1 9 4 a 1 3
b 2 a 0 a 3 2 9 4 9
3 3 3 c 2 3 0 1 4 b
0 0 0 0 1 d c 0 9 9
