1cd6
1d5f
1c70
1d8a
1c53
1c5c
1d79
1d61
1ecc
1d93
1dbd
1d7c
1df9
1dd3
1d7d
1d09
1ccb
1d2c
1cc7
1c9a
1df3
1d51
1d4d
1cf6
1ce3
1d04
1c62
1dde
1da0
1cf2
1d84
1c87
1ce0
1d3d
1ca5
1a33
1ee4
1dff
1c9f
1cd6
1f5f
1e42
1e04
1e1f
1cc2
196e
1cf3
1d99
1c53
1c71
1cf2
1da1
1d80
1cdf
1d45
1d49
1ccb
1e77
1d98
1e40
1d19
1d40
1d8d
1fe1
1ce5
1d5d
1cf4
1cfb
1db8
1cad
1d36
1ce6
1df6
1cbb
1e1a
1dd3
1efc
1d78
1e21
1c68
205d
1d85
2036
1d54
1d50
1d1f
1c06
1e67
1cef
1ce1
1cf8
1e41
1dd3
1bf4
1db0
1c56
1ca8
1c63
1d47
1e7c
1c7f
1d47
1ff6
1c6e
1e80
1d61
1ca6
1d2e
1d84
1d1e
1d26
1dca
1ce9
1eaa
1cef
1d85
1e16
1cdb
1def
1be0
1de6
1df9
1f18
1e08
1d74
1dfa
1dda
1cd4
1c5b
1e2f
1cda
1c7c
1dcc
1d31
1d3a
1db4
1daf
1d2b
1c62
1ca5
1d8d
1c37
1e35
1e05
1ca4
1d3c
1bf7
1d35
1d5f
1d7a
1d72
1dbc
1cd1
1c2e
2052
1d9c
1d5f
1e07
1df5
1cc3
1c95
1c11
1f42
1ff6
1d94
1c2f
1d01
1ea2
1d45
1d35
1d7c
1cfd
1dc2
1dcc
1d7e
1ccb
1d05
1cdf
1db8
1d6f
1eb4
1d12
1eb7
1d8f
1d82
1d5d
1de2
1cd4
1cc8
1d8d
1e3b
1d22
1c47
1cee
1d33
1d72
1d94
2091
1c53
1d4e
1ced
1d30
1c0e
1c97
1ccf
1ce2
1c0c
1ec4
1d54
1c42
1d51
1d00
1cb6
1d90
1d44
1c5f
1e2a
1f03
1d1d
1c91
1d75
1cd8
1cb2
1d56
1cf2
19d1
1d94
1c82
1c68
1cb4
1c86
1d94
1e1d
1e17
1d09
1d28
1d93
1c9d
1d02
1cb3
1d17
1c24
1d48
1e08
1ee1
1e7a
1c8b
1c87
1f89
1d22
1d65
1e08
1daf
1c3c
1d24
1f18
