3049
394a
2825
395c
345e
3940
3935
25ec
8d42
398b
394d
36c3
37b2
3834
3865
34df
3893
3564
38ed
2ffc
2bd1
33c9
327e
3902
2acb
38a7
392d
3482
2941
3ac5
366d
38a3
3871
2a30
388a
3683
2dec
38a0
2719
3a52
2ed8
35e9
363b
38aa
35df
3883
36d6
39ec
3352
35e3
3870
3b35
376f
3814
3603
96e4
3880
39f1
3ab7
396a
35d8
34a7
9c2b
387d
3761
3579
3100
363c
37dd
38ae
3adf
3803
3497
36ab
3a46
28ba
3417
9c62
37fb
3799
3c27
39c7
2742
3b0d
364d
3a0a
2439
3895
36ac
34b7
2858
32bb
3876
38d7
3976
344c
2f92
28db
2e08
2ebc
24e5
9660
38f0
39a8
31bd
87cf
2352
2c7d
3495
2bc3
3584
395a
3814
39e1
35d1
21c0
2cee
3905
39e7
3472
3ae0
3b59
301e
3642
37c9
38d8
38d3
3839