43f9
40e0
4550
3f05
3841
41b8
404f
412d
48b1
4612
47d1
4389
460c
45e4
46d3
4199
43c7
4770
41b2
3ffb
44a6
46f7
46dc
44e0
4602
444b
45fa
4566
454a
4687
4872
c00e
46cd
4817
4769
493c
40c9
41a0
442e
3a82
433d
43bd
4490
44ce
4762
4351
4637
4785
46ad
43d6
3eb9
39c4
468c
460b
45dc
45e6
4887
43c2
4451
480a
4932
43c5
499b
414e
4216
3561
4750
47b7
4335
48d6
41df
4480
4654
40ac
47ca
44e0
bae1
4438
4564
bc29
434d
48ba
46a3
480c
43cb
432f
4586
4875
4765
49b3
4094
4112
447e
403a
3b67
459c
4218
3bb1
3e3b
46d4
467b
445f
3bf3
4430
3d0f
457c
47c1
3ee9
438e
47bb
462f
322e
46a2
455c
40cc
486a
4829
475e
47e7
45e4
45e1
48a5
3e93
3d1c
4607
46e0
4313
4360
3e3c
4656
47d4
ba7f
4231
49fe
45af
47c9
46d0
4579
48f7
41dd
4669
40e3
48fd
44ca
4662
463d
3769
463a
4691
46a0
47de
4763
3ccd
4896
43b5
448d
47dd
40f1
46fc
3f8d
4865
40ac
449f
47ca
4472
47e5
46fb
3f7c
400a
3f68
4944
472b
41df
47a1
4547
4073
4339
4750
b5df
45c9
43b0
46cd
440e
3df7
403c
3f71
30e2
415f
4514
3766
428c
471c
48f1
45ab
4601
3c99
4473
4183
44d4
45af
4548
48f9
447f
4567
3970
4721
446d
423f
4837
33bc
4541
48d0
44a2
45a7
4178
4681
45f3
473a
3f8d
4022
45df
45e6
4324
45c9
461b
4920
46b0
42f1
4890
4329
46bf
45b3
40b6
4239
446d
4073
448c
4653
44bc
43db
413b
455e
4731
3c6e
403b
425e
44ee
468a
4681
41f4
3c68
4223
423b
3cd7
43c6
4210