0 3 d 9 5 c 1 b 3 d e c a 1 9 5 2 6 4 0 9 d 6 4 a c b 5 1 4 1 e 4 5 5 b 3 2 1 0 1 9 0 9 0 2 3 0 2 0 2 0 1 9 4 6 9 2 0 a 5 0 3 4 a 5 5 2 1 d 9 1 4 1 e b 4 c a 0 c 1 5 c d d 3 0 e 2 4 0 2 9 0 2 6 b 0 6 3 6 1 9 a 0 0 2 1 4 0 1 1 c 5 c 5 0 3 b 9 a 4 1 0 2 2 2
3 1 0 9 b 4 9 c c 2 2 0 0 0 0 4 3 1 3 1 4 2 0 0 3 a a 4 5 4 5 9 0 d 3 4 5 3 6 9 0 5 9 9 0 2 1 d 3 2 5 c 0 2 0 0 3 3 0 1 0 0 6 4 0 4 0 0 c c 4 0 0 e d 0 b b 6 1 0 0 0 1 4 0 9 5 a 5 3 3 6 1 3 4 1 4 b 9 9 c b 6 1 a a 3 0 6 4 2 4 1 6 4 5 2 a 1 0 c 6 0 0 0 3 3
3 2 0 c 2 d c 4 0 4 0 b 1 b 9 2 3 4 0 5 c a 9 a 9 a 4 4 a 4 a 9 0 a 2 1 4 c 4 1 3 2 1 3 4 0 9 1 3 0 4 e 1 3 2 6 5 0 c a 9 b 2 0 b 5 2 1 0 9 b 0 5 0 a 3 6 a 1 2 c c 5 b c c 1 9 9 2 1 b d 1 c 2 5 c c a 5 3 1 a 2 0 3 1 9 2 1 0 3 a 1 1 9 4 4 0 c e a 3 3 0 4 3
0 0 2 9 4 3 0 0 6 2 9 9 9 4 1 4 4 0 5 d 4 5 c 1 a 4 1 c 0 0 b 0 4 4 e 6 0 5 3 5 0 b c 0 e a d d 4 3 c 6 b 1 3 1 c 0 1 0 e 6 1 3 d 0 5 6 0 4 b 4 e 0 c 2 5 2 a a d e 9 0 3 1 4 1 4 9 1 2 b 0 0 0 5 a 5 3 6 6 1 d c 1 6 c 4 5 c 5 9 4 e e e e c a 2 6 3 b 1 c 1 0
b b b 2 9 e 1 4 b 1 b c 2 4 0 4 9 4 0 9 2 2 d d 3 9 0 0 0 c c 9 0 a c c 2 0 3 3 3 3 c a b 0 b 0 2 0 9 c 3 3 4 2 2 0 b 5 2 4 5 b 1 d 9 9 1 2 0 2 c 1 c a 4 1 0 0 c 2 a 1 5 a 3 0 0 0 4 4 c 9 0 0 2 a 4 3 3 3 1 b 0 4 3 0 1 4 2 0 a 0 9 0 a 1 2 a 2 d a 3 5 9 0 1
2 9 d 2 2 d 0 0 5 d d 2 a 5 b 0 9 0 5 0 9 0 0 9 d 2 c 1 1 c 9 1 2 0 2 4 4 9 4 0 9 a 9 9 3 c 2 c 5 0 9 6 1 c 4 4 3 b 4 c a 0 6 1 a 4 5 6 1 b a 4 1 1 0 0 6 b 0 4 b d 6 0 4 c 6 0 0 9 4 4 2 b c b 2 0 0 4 0 5 a 0 1 1 1 4 6 2 0 5 2 0 c 1 c 9 9 4 0 1 0 c 5 a 0 a
3 4 0 5 d b 0 6 2 c b 0 0 a 0 a 0 4 0 3 2 2 9 0 1 b b a 4 4 a 4 c 5 3 0 9 3 3 a 9 1 0 3 6 4 5 2 e 1 c d 4 6 e e 9 1 9 0 d 2 d a d 6 e 1 c 6 9 c 3 2 4 3 5 4 6 9 2 4 e c 6 b a 3 6 5 2 4 9 a 9 0 e e 1 c 5 2 9 1 a 1 0 2 c 0 4 1 3 3 0 9 0 4 5 a c 2 4 1 b 2 0 d
2 b d 2 1 0 a 1 5 a 9 c a 1 4 4 4 3 1 2 3 e 5 a 9 1 0 4 0 4 0 1 3 0 4 3 5 c 4 b 9 3 0 a 6 0 3 0 0 2 5 1 a 3 9 6 0 b b e 5 4 5 2 d 2 a 5 1 c a 0 6 e 9 c 4 d b 9 6 a 0 9 d c 4 0 d 4 0 0 4 0 3 4 1 9 0 1 4 0 c 4 0 3 b 3 9 4 9 b 2 c 5 c 5 6 0 a 4 c 0 c 0 0 0 0
e 6 e 6 9 e 6 d 5 5 e 3 6 6 6 4 0 e 6 c 0 0 e 6 0 6 6 e 9 5 b 6 4 0 6 9 a 6 e 6 0 0 2 5 c 4 d 6 5 2 9 6 9 0 6 e 6 6 6 6 e d c 6 4 e 5 3 6 6 6 6 e 6 4 0 0 6 3 c 9 3 1 5 9 6 1 6 4 e 2 0 b 6 6 e b 4 e e b c 4 e e e c d 6 a 4 5 b 6 e a e 0 6 c 6 3 2 6 0 4 6 6
1 9 0 d 4 6 1 a a 0 9 a 0 1 b 1 a 1 5 1 2 b 6 e 4 6 a 2 0 c 9 e 3 6 e 0 6 a b 9 0 a 4 4 5 a 6 1 0 6 0 0 3 a 1 6 5 c b c 6 6 6 1 1 3 1 4 5 0 e 4 6 a c 0 d 0 b 4 e 6 9 2 d 0 6 c 1 c 3 2 5 0 4 2 5 4 6 0 6 6 2 c 9 0 b b 4 3 9 5 a 0 0 5 6 9 6 e 2 c 4 0 6 0 c a
d 2 0 6 0 3 5 a c 1 0 5 a 9 0 b 0 4 0 9 c 4 d 4 d 6 b 2 5 4 1 2 3 6 5 5 9 4 5 4 c d 0 9 b 0 2 c e a 4 4 0 c d c a 6 a 3 0 b e 9 c 3 2 4 c 3 1 d 4 4 c 2 4 1 0 1 5 0 c 0 6 9 c 3 4 0 2 2 3 4 0 a a b 5 5 1 0 a 0 b 4 4 5 9 a 6 b 0 5 3 4 4 3 4 d a 0 0 b d 5 1 9
b 2 3 b 2 2 4 0 c a 9 0 1 9 4 0 5 0 3 0 b e 0 c 0 3 0 4 5 4 3 4 0 1 b e 9 4 4 0 0 1 3 0 9 4 0 4 5 9 b c 1 3 b 3 b 1 9 2 9 9 9 5 2 1 c c 9 b b 0 a 4 2 4 9 4 0 1 c 1 5 c 2 e 0 1 c 4 c e 2 0 9 5 c 1 c a c 9 0 9 d 2 5 a 1 a 9 a a 5 c a 3 1 4 0 5 d a 4 c 0 a 1
2 0 4 4 9 9 9 c b 4 0 0 9 0 a 9 1 d 3 c 3 0 a 4 d 2 2 0 0 3 4 1 d 9 b 0 1 1 3 1 9 4 9 2 1 0 e 0 3 4 0 a b b 4 9 a 2 c 4 a 4 c 5 6 c 1 c a a 0 a d 5 3 b a 0 b a d 0 0 3 4 4 c 5 1 0 0 0 1 0 5 1 a 4 b 4 d 0 4 a 0 0 9 c 4 1 b b 1 5 9 2 0 0 0 b 4 a 4 0 c b b 5
4 b 0 0 6 9 1 3 e 2 0 a 0 0 4 9 4 0 0 b 9 e 5 3 3 3 b 2 9 3 c c b a 6 1 5 0 1 c 0 4 0 3 3 9 3 2 6 a 0 0 1 6 5 2 2 1 c c 5 4 6 1 0 0 9 d 2 2 0 0 1 2 0 9 b 0 0 3 b 3 2 4 e d 5 3 9 4 0 9 5 a 5 2 c d b 5 3 a 0 0 2 a 1 9 2 c b 2 c 4 2 4 1 6 0 5 4 e 3 4 3 9 b 5
6 1 0 0 0 c 0 0 a 6 0 1 1 6 b 1 1 1 0 6 b c 5 0 3 3 5 d c c c 4 2 d 9 0 a c e 9 2 a 2 5 1 1 e 9 1 e 4 a 3 0 2 5 4 4 0 4 a c 2 9 e 9 a 2 1 6 c 2 3 1 6 9 3 4 9 e 5 a c 6 e 4 4 a 0 d c 1 3 0 3 4 0 d 1 3 5 e 0 1 5 b 5 b 4 d c 2 a 5 d 4 e 4 4 5 4 2 d 6 6 1 4 5
6 c 1 0 2 0 0 a c c 3 0 a 0 2 c 0 0 e 9 0 9 6 c 4 3 0 0 1 9 c 4 4 6 3 d 5 2 a 2 0 a c 3 6 c 6 5 9 4 b d 9 0 1 b 2 c 0 a 0 6 6 5 b 0 c 6 3 5 0 5 6 c c 4 b 6 9 5 a 5 3 d 0 b 4 b c a 4 5 3 0 4 0 5 3 1 b 6 6 1 e c 2 1 9 5 c d 9 c b 2 a 1 4 4 0 9 0 1 a 5 c a c
0 0 c 1 2 c 9 0 9 2 9 9 c c c c c d a 0 0 2 4 2 4 1 1 2 0 9 3 4 a 4 1 b 5 4 c 9 5 1 a 0 0 9 a 0 3 2 1 0 d 1 4 c 2 0 a 1 5 4 1 2 4 d 5 5 5 4 0 2 2 1 e 0 c 4 c c 0 0 0 4 0 2 5 a b a 0 5 c 9 5 5 a d d 3 4 5 c 1 4 0 2 c 5 c a c 0 1 1 1 6 4 4 c 5 5 d c 4 0 c 9
4 4 d 3 0 1 2 c c 0 9 0 2 c 0 a 0 3 d 3 d 9 a 4 d 2 a 0 2 0 9 6 3 2 6 4 0 3 2 3 5 0 3 9 b 5 c b 5 a 3 4 0 5 4 0 0 4 d 1 d 1 9 4 5 1 1 6 9 1 d 9 9 0 e 6 c 4 2 b 4 0 5 1 3 2 2 2 1 3 0 4 c a a 3 3 a a a 5 0 0 0 1 6 6 a 4 3 2 5 2 4 4 a c 0 3 4 9 1 d 4 0 1 0 2
3 d 3 d 3 b 9 0 0 4 2 0 9 3 1 b c 0 c 1 0 1 3 9 3 9 4 c c b 1 c 0 d e 9 1 9 0 b 4 0 3 4 0 b 0 9 1 9 4 c 2 2 3 9 2 b b 0 1 0 4 0 e a d a 4 3 0 1 c 0 4 0 4 a 0 0 0 a 4 0 d 0 1 9 0 9 a 9 6 0 0 a a 1 2 0 3 9 0 0 2 4 5 a 2 3 c 2 4 9 b 3 5 a 5 b 4 e d 5 5 a 4 3
0 a c 2 9 c 5 c c 0 3 2 0 3 c d a c 4 a d c 9 2 1 0 2 1 0 9 9 c b 2 1 b 5 0 0 1 a 9 0 1 a a 2 0 5 5 c c 0 0 4 c 9 0 0 1 4 4 0 c 1 4 6 5 2 b 0 5 c 0 c d d c b 3 b 4 3 0 4 0 2 1 c d 2 5 6 a 4 c a 9 a 3 1 c a c 4 c c 9 3 0 5 6 d a 4 4 a 1 9 4 0 0 0 0 1 a b 2
4 2 c 0 2 4 1 d d a 0 2 9 4 5 d 0 b 3 c 5 4 6 6 e 6 2 3 1 c b 0 0 a 2 1 0 b a 4 0 1 2 2 a 0 4 0 2 4 6 3 d a 3 6 0 0 b 9 6 6 9 4 0 0 4 9 4 5 3 4 4 b c 4 e c b 4 9 5 0 4 0 9 2 0 d 0 0 e 4 0 6 2 b e 0 6 0 6 4 4 b c 2 a 0 4 9 b c 9 4 6 6 6 2 c 5 5 9 4 2 2 9 5
0 0 a 9 3 6 9 2 0 2 1 9 a c a b 0 c 6 5 4 1 6 d 4 4 4 4 b 0 5 1 c 5 c 3 0 e 1 d 4 1 b 5 2 0 4 0 4 4 3 d 0 5 0 4 4 0 c b 5 4 a c c d a 3 3 3 9 1 4 0 1 d 9 d 9 2 0 4 c 5 0 2 b 9 4 2 0 c 6 0 4 5 2 0 9 9 0 4 c 6 5 5 b 0 0 1 a 2 4 0 1 b 6 6 2 0 5 e b 0 2 0 a 5
2 5 1 5 c 5 5 c 9 9 e 6 0 0 6 1 4 2 4 2 2 0 e 0 d a a 4 5 9 6 4 c 0 6 0 4 3 4 5 a 9 2 b 0 5 0 c 0 4 0 9 1 6 0 3 0 5 c b 3 a 5 4 9 1 5 c d b 0 2 3 0 e 5 9 5 6 2 6 4 9 d 6 a 3 1 1 3 1 d 0 9 0 0 1 3 4 4 a c c 0 a 1 3 6 b 3 6 2 6 0 2 0 1 4 a 3 2 e 5 0 b 4 9 1
c 1 4 c 0 4 0 3 5 0 4 0 0 a 1 4 0 5 d 2 d 4 0 b 0 0 1 1 0 3 9 a 5 0 c 4 2 3 1 5 4 4 3 3 e 0 e 2 0 a a 0 2 b 0 2 c a d 3 9 b 9 4 b 5 2 0 0 a c 0 9 4 e 6 6 c 1 0 c e 6 2 4 0 2 0 5 1 b 0 4 2 c 1 4 0 2 1 9 1 2 c c 5 2 2 1 4 c c 0 1 c c 2 0 3 1 d 0 b 0 b 0 1 4
c 9 4 9 2 d 5 0 2 c c 4 1 4 0 2 0 1 c 4 c b a e a 0 c 0 4 5 4 c d 3 b 0 a 3 5 4 0 0 1 0 3 0 3 c 1 5 0 c 2 e c c 0 3 0 0 9 c b a d 9 9 a 9 c a c c 4 1 0 4 1 2 9 1 0 9 9 5 1 2 1 0 0 4 0 2 0 b 0 a a 3 9 a c 4 4 0 4 2 a c 9 0 4 0 0 0 0 0 3 2 9 2 d 1 3 3 2 2 0
a 2 a 2 b 1 4 4 a 0 2 6 1 1 4 3 4 4 e 1 5 e 9 0 c 4 9 3 6 4 2 0 0 0 5 c 3 0 5 4 9 2 a b 9 6 a 9 b 1 2 9 0 0 1 c c 2 0 c 2 3 2 0 4 1 b e c 0 b b 4 3 2 3 a 4 2 0 4 0 4 a 0 9 b 0 1 1 0 c 5 a c 1 b 3 3 5 c a 9 5 0 2 9 5 0 6 9 0 3 3 a 3 9 1 2 e 9 c b 0 a 3 b 2
5 9 4 0 9 c 5 4 6 0 5 4 a 3 9 1 5 5 0 1 3 a 1 e 2 1 1 2 4 4 c c 0 a 0 a 2 1 6 4 4 3 0 0 b 1 2 c 4 2 2 c 2 4 0 2 0 2 2 4 a 3 2 9 c 4 0 d 9 0 0 b 0 1 c 6 6 4 3 0 1 1 5 c 0 0 4 a 4 4 0 d d 9 0 2 0 0 6 5 5 2 2 3 b 3 2 0 2 3 c b 9 1 1 9 c c 4 5 a 2 1 0 1 a 4 3
0 0 1 d 2 2 c e 0 5 5 4 a 6 6 b d d c 4 a 3 6 4 a 5 2 0 0 e 1 2 c d 4 0 9 e e d a c 0 3 c d 9 a 0 1 6 c a 6 4 6 4 0 0 5 4 a 9 b c 4 4 0 1 3 3 3 a d 5 c c c 1 0 9 5 d 6 d 4 0 3 1 d b d 5 0 6 9 9 9 a 3 b 2 b 3 6 9 5 a a b c 0 c 3 6 5 3 6 a 1 5 c a 6 4 0 4 6
1 9 4 a 5 2 0 e 0 a 6 a 0 6 4 d b 2 1 3 5 d 6 9 a d 1 2 d 0 5 c b 1 d 5 0 e c c c 2 9 1 0 a 6 1 3 6 9 0 0 3 9 9 0 b 2 0 6 3 5 c e 1 9 3 a c c 4 5 d 5 e 1 e 9 1 6 1 9 2 c 1 c 9 9 a 1 4 b d 2 0 0 0 2 2 2 3 b 5 2 1 b 9 2 4 0 5 0 c 5 4 6 6 0 5 2 0 0 b 9 0 2 a
b a 0 9 5 0 1 2 2 0 c 0 0 0 0 1 0 1 4 9 3 b 2 0 a 2 a 0 4 2 1 d 1 2 4 0 4 2 3 6 a 3 9 0 0 2 0 c 2 4 a 3 a c b 4 0 4 c c 2 4 a 0 c 0 1 5 0 9 1 9 1 b 4 e 3 c 4 2 5 0 4 a c a 0 6 c a 3 0 e 9 b 2 0 1 5 b 9 4 4 9 a c c b 0 a 0 4 0 a 0 4 d 9 a 0 0 b 6 c 0 a 2 3
3 1 4 0 5 3 b 1 b 4 6 0 a 5 a b 0 d 4 1 4 4 4 5 9 0 6 5 9 d 6 4 a c c 4 a 0 c c c 4 9 0 0 c 0 b 6 1 4 0 b 5 4 a c 0 c 1 6 2 c d 0 b 6 d 0 4 0 3 4 d 4 c 0 c 0 a 4 3 e 6 1 6 0 0 3 9 a 3 1 9 5 3 b 3 c 5 c 2 0 6 5 d 5 1 b 0 c 0 6 5 2 9 4 1 a 3 3 a c a b 0 5 5
4 3 c b 9 1 3 4 c 0 1 c 0 3 9 3 0 a a 2 3 c c 4 2 a 2 0 4 0 9 3 a 4 4 d 0 a 2 4 2 0 a 0 4 b 4 2 4 a 0 c a a 0 1 2 b 0 9 0 3 3 9 a 4 0 3 0 3 b 0 9 0 0 4 0 b 4 c 3 2 c d 1 a a b c c b c e 0 1 5 0 c c a 1 3 9 0 b 4 c 9 c d a d 9 a 2 3 2 9 3 0 3 9 b 0 9 0 0 0
4 0 0 2 3 d b 0 c 1 9 a 0 2 4 a 4 a c 0 c c 2 0 d 9 0 4 9 0 1 a 1 3 9 c 3 1 4 a 4 0 1 3 b 9 a 0 5 4 0 0 3 a 2 5 4 4 0 b 5 1 4 3 c 4 5 2 0 c 1 0 9 2 9 c 9 b a 3 5 9 4 0 1 1 3 9 9 2 0 c b 2 9 4 3 0 0 9 0 b 0 0 2 b 9 2 1 9 0 9 4 b 2 0 b 0 a 4 0 b 3 1 1 2 3 3
4 1 0 c 1 6 3 2 9 0 a 6 0 9 4 9 3 c 9 0 6 c 6 c 0 6 2 3 4 1 6 b d 6 c d 9 a 0 5 a 4 a 9 5 3 6 a a 5 0 e c 3 a b 0 0 5 2 6 6 0 0 9 c 9 a a 6 9 0 6 5 2 1 a 0 0 b 2 6 2 6 0 0 0 c 5 5 a 2 2 a 4 1 0 6 5 6 6 6 4 4 0 2 0 a 0 9 a 2 0 0 c 1 6 5 5 2 3 e c 0 c c 1 5
4 0 3 9 3 9 c c 9 0 5 b 0 3 9 b 0 3 4 3 2 a 6 3 2 0 0 2 b 4 4 b 3 4 4 0 5 9 9 c 2 0 c a 6 9 6 b a 3 0 b a 0 a 4 0 2 3 9 0 6 5 2 b 0 0 9 0 3 a 4 4 b 2 c 0 1 0 0 3 4 3 a 9 a 4 2 3 3 2 0 6 9 0 0 2 b 5 9 2 3 c 1 0 3 0 3 3 6 3 4 2 0 1 1 3 1 a 4 1 1 0 0 2 2 0 0
1 a a a 0 c a 1 1 0 c 2 1 0 1 2 9 b 0 2 a b a d 0 1 0 4 3 9 0 0 2 9 0 0 2 a 0 0 0 b 0 9 c 0 3 1 4 0 0 c 1 d 3 9 1 a a a 0 9 b 9 9 3 3 c 0 0 3 0 0 b 9 c 2 a 0 4 d 1 a 2 2 1 3 0 9 3 3 c 2 0 0 9 3 2 0 4 3 4 3 d a c 0 b 0 0 9 9 9 4 3 2 4 b 3 0 4 2 b 2 2 0 2 3
d 0 0 5 d 3 5 4 b 9 1 2 4 c 4 a 4 4 4 9 0 2 d 4 5 c c 6 5 6 5 3 d b 3 3 6 5 6 d c 6 2 0 0 4 b e b 0 2 b 1 6 0 e 9 3 d c 3 c 0 2 6 c a e d e 5 b 0 a a 2 3 e 6 1 5 4 4 0 6 4 c 5 2 6 4 3 a b 3 4 0 6 e 0 d e a 6 0 1 d 5 b 6 6 2 6 2 5 4 2 3 0 b d b 6 c a 2 0 2
0 b 4 a 5 4 0 1 c 0 a b b c 4 0 2 c 0 9 4 2 0 2 a 0 1 9 5 5 0 0 a 1 a d c 0 3 2 4 6 0 4 b 2 c 4 2 d 2 c 4 0 3 2 0 a 0 4 6 a c 4 6 d c e 3 3 b c 3 6 b 3 4 9 0 d 0 b 3 0 9 c 9 0 0 0 e b 4 3 1 5 2 4 4 1 0 4 0 5 2 6 2 c 0 e d c a 5 0 2 3 9 4 a 2 d a a 0 0 b 4
2 4 1 0 2 e b 4 c b b 9 9 0 d 4 0 2 4 1 9 a d 0 c 1 9 4 3 4 a c 1 b a c 0 5 1 3 0 9 1 a e 1 e 0 1 0 4 0 4 0 9 a a 3 1 4 c b 4 0 5 2 a 2 9 0 9 0 2 b b c 6 c 3 1 c 2 6 a 1 0 0 0 b 4 9 0 1 0 c 0 2 0 1 c a d a 3 a 2 1 0 4 0 3 c 0 0 c 1 9 2 1 a 4 9 0 a 4 3 a 0
3 1 c 0 4 3 a 2 5 b 0 a 9 3 9 4 2 0 3 a 4 0 3 e 9 0 b 4 4 b c 2 1 2 4 0 0 5 4 0 a a b a 0 1 1 0 1 0 9 3 d 2 0 a b 3 a 9 1 6 1 2 c 4 0 4 0 9 0 1 0 1 d 3 5 3 9 4 d d 5 a c 0 5 2 3 d 4 3 e 0 9 3 3 c 0 b 2 5 c c c 0 2 9 4 5 1 0 1 0 0 0 a 0 9 4 1 5 4 c 4 b 2 2
b 1 4 3 c 3 c 2 9 d a 0 0 3 c 3 d 6 2 a a 4 6 9 6 9 0 3 9 e 2 6 1 6 c 2 6 2 b d 1 c 1 c 2 e 6 0 c 6 a c 1 5 e 0 5 5 a 4 9 6 6 0 e 6 4 5 0 9 c 6 4 b 5 0 b e 3 6 0 5 d b 5 4 6 b 3 2 6 0 d 0 c b 6 6 6 b 6 5 c a e a 0 5 4 6 5 5 2 c 5 0 0 d c b 0 d 5 1 6 0 9 c
d d 6 2 0 9 4 6 3 6 c a c d c 0 e 4 5 b 3 4 4 a 4 e 4 2 c 5 6 4 e 2 0 e 5 3 4 e 2 6 c 3 a 9 6 4 5 2 c e 1 5 1 e c c 2 3 0 e 9 9 3 b 0 b 0 2 1 c b 3 c 5 4 0 b 9 6 1 a 3 6 6 3 1 6 6 4 6 b b 3 5 b 5 0 3 e c c 3 0 3 c 2 0 e 5 b 1 5 1 2 b c c a d 0 6 0 2 a 9 b
3 1 a a 0 5 2 d c 0 6 3 c 6 4 c 5 d c 6 b 9 4 6 c 6 4 0 2 a 9 b c e 6 3 e e c 5 0 9 0 4 0 3 c 0 4 0 6 6 a 6 1 3 3 d 0 a 6 4 0 d d 9 4 0 4 6 c 0 e e 0 2 e 4 0 d 1 9 d 0 e 9 c 0 0 e e e 3 0 4 6 e e 9 0 6 5 6 6 4 a 4 a e 9 e e 0 5 4 6 6 6 0 3 3 0 e 3 3 0 4 6
c 1 0 1 2 6 2 2 0 0 9 2 0 c 9 c a e d 9 1 3 1 0 2 1 4 1 2 c 5 5 c 5 c 9 1 0 b 0 2 1 d 0 6 b 6 5 6 4 c 0 a 9 3 e b 0 c 0 4 0 e 4 2 e 2 4 0 3 b 2 d 0 c 1 d 3 d c 0 3 c 1 3 3 2 c 5 0 9 4 d 0 0 b 0 2 e 5 c 0 b d b c 4 a 2 3 2 e 0 6 b 0 0 2 0 d 0 c 9 2 0 d b 4
9 5 d 1 c 1 2 0 c 0 2 5 b 1 0 c 9 2 e a d a 2 5 a 4 0 1 4 c 0 3 0 5 6 1 9 2 9 3 3 d 0 0 0 a a b a 0 b 6 c 4 1 c 1 4 1 1 0 5 0 4 1 0 1 6 0 4 3 b 1 2 b 1 d 0 0 0 b 5 0 0 9 4 4 2 4 9 a 3 2 0 9 9 b 1 0 d 5 5 9 d b 1 9 4 3 3 1 e 0 4 4 0 b 3 0 5 1 4 d a c 0 1 c
9 3 a 0 3 5 0 9 c 9 0 4 0 b 9 1 2 c c a 0 0 3 3 c a 0 0 3 4 2 a a 0 c 9 c 0 3 a 1 1 a 0 c a 2 3 c 4 2 c 0 2 9 9 a a c a c 2 a 0 3 c 0 0 a 9 0 0 b 2 a 0 2 4 9 0 4 9 a 4 0 2 a 0 a 0 0 0 4 a 0 4 3 0 2 1 1 0 1 1 a b b b 2 9 b a 9 b 3 a c 2 b c 1 a a a a a 0 b
0 1 0 c 5 b 1 5 2 c b 2 1 5 4 4 3 a 0 1 1 a 5 1 1 4 b 6 0 4 0 e 4 3 a 4 9 9 4 2 d 0 9 0 2 0 5 a 9 6 4 4 0 d b 3 a b 9 b 4 6 0 0 e 4 3 a c c c 2 1 b e d 5 e d 3 c b 4 1 2 a a 0 b 1 4 3 4 1 9 c 3 e 6 3 0 6 5 a c 9 0 0 4 5 c 4 c c a 0 0 a 1 a 5 5 4 9 1 b 5 4
0 b 4 9 1 c a a 4 6 4 9 5 9 d 2 0 6 e 4 b 6 0 e 4 d 0 0 d 1 6 b b 0 d 0 4 3 0 d 4 6 4 2 a b 3 1 2 4 c 0 6 2 1 1 4 5 c 6 2 b 5 1 3 5 9 4 1 0 a 0 0 0 0 0 6 a 6 1 3 0 c 4 6 5 4 b 5 4 6 4 b 6 0 0 6 4 4 9 9 c 9 5 4 c c 3 4 3 9 2 6 b c 9 a c 0 2 c 4 1 4 4 2 0 c
d 1 2 b 1 6 0 0 b 9 1 3 0 3 0 0 1 b c b c c 4 b 9 2 9 0 9 c 4 b 2 1 c 0 0 0 c 4 0 3 9 3 c a 0 3 0 4 0 d 3 1 b 9 1 d 9 b 3 5 4 c 2 9 c 0 0 b c a 0 4 0 0 2 b 0 0 b a 9 2 c 9 0 9 b 0 1 a 6 0 0 b c 0 2 a 5 1 4 4 b 1 3 2 1 0 0 a 0 1 9 0 4 4 1 0 2 e 0 9 2 1 1 9
9 2 c c 4 4 a 3 0 4 9 4 0 d 0 c b 4 e 3 a 0 0 b 4 0 1 3 0 c 0 1 b 3 6 b 1 3 9 b 4 3 2 1 4 0 3 2 3 b 1 a 0 6 3 c 0 4 1 1 0 0 0 3 6 0 c a 0 0 0 9 3 0 b 0 0 a 9 0 2 1 c b 2 4 2 0 3 5 0 0 0 c 0 5 9 3 b 3 0 0 b 4 0 5 0 0 1 e 0 a 4 b 4 9 5 5 2 a d e 2 a 2 0 c a
a 1 c 5 1 e 0 5 b a a 1 a a 9 1 1 c d c 5 9 d b 2 9 0 9 5 2 1 b 3 5 1 9 c 2 4 9 3 4 9 0 4 2 d 0 0 9 0 b 0 2 1 5 c 2 0 0 b 9 c 5 0 0 e d b 4 b b b 3 4 5 4 b c 2 9 b 2 c b c 0 1 9 1 4 d 3 b a 3 4 0 6 4 a 5 3 d c 0 5 9 0 5 9 0 0 5 a 0 1 d 0 0 2 0 a 2 0 c 1 4
6 1 3 b 0 3 0 0 0 9 c 4 0 c 0 0 5 6 a 1 a c 2 0 0 5 a 0 5 2 9 d 4 5 3 b a 9 1 5 0 b c 2 5 0 0 1 0 0 3 c 1 d 1 0 0 d b b c 4 4 c 1 0 9 9 2 2 0 0 a 5 c 1 5 3 2 c e 0 3 e 9 c 0 9 9 a 1 d 6 2 c 2 4 d 5 2 9 3 2 9 c 0 5 b a 4 e 1 0 9 c 1 4 a 4 5 4 e d 0 0 9 0 b
b 3 4 3 0 1 1 e e 0 5 1 4 0 9 a 1 5 b 2 9 5 1 1 5 0 0 9 c e 6 0 9 0 5 4 2 0 4 c 0 3 4 a e b 2 c d 5 2 a 4 6 b d 5 5 1 1 2 b 1 c 9 6 9 3 9 9 0 3 0 e c b 0 c 6 5 4 0 c 6 3 4 0 1 a 5 3 0 c 1 0 3 b 1 4 c a d c 6 4 b d 6 c 3 3 4 3 c 1 4 4 4 d c 0 b 0 0 b 4 3 0
4 9 0 d 3 0 1 0 6 3 4 4 9 2 1 2 3 2 0 0 d 6 b d 5 4 9 9 2 0 c 0 0 a e c a c a 4 b d c 3 c 2 3 2 1 4 3 c 2 4 a 4 1 0 0 4 0 3 3 2 c 3 b c 0 9 1 0 0 4 b d a 9 3 b d a a 0 2 d 3 0 a c 3 e a 4 2 b a a 5 c 5 9 4 0 1 c 1 b 9 4 0 9 1 a d c a a 0 0 2 6 4 0 1 1 3 4
1 0 2 c 6 3 1 1 1 0 b b a a 0 b 9 0 c 9 1 3 4 e a 0 3 0 d 2 1 c 9 c e 5 0 d c 0 0 4 1 0 0 d 2 0 0 1 4 c 0 0 1 6 0 9 c 4 4 c 4 d a a 0 4 9 4 a 0 d 0 1 e 3 c c 0 6 9 9 5 c 4 c 4 a a 4 4 0 0 6 4 4 c 0 6 4 0 0 3 6 c 5 c 1 4 d 1 3 5 2 a 4 2 3 4 5 0 9 2 5 0 0 3
9 4 e 0 b 1 4 2 d a e 5 1 0 1 9 2 d 0 3 4 b 3 0 d 6 0 0 2 2 3 0 a 1 d 2 a c 6 2 9 0 a c 2 2 6 b d 4 4 b 0 0 c a 9 1 0 a 3 0 0 c e 1 0 0 a 9 3 9 6 4 c a 4 3 b 1 0 6 c d 4 9 4 4 b 6 0 c 4 9 3 3 d c 6 6 0 6 3 4 4 6 1 2 b 6 a a 2 0 0 c 6 4 3 c 4 e 5 9 0 0 a 0
9 a 4 1 0 0 c 0 4 5 a b 9 1 9 1 0 0 0 9 a b 1 5 1 2 4 0 4 5 1 6 1 4 0 2 2 3 4 0 6 6 0 0 3 1 b 6 5 b 0 c 0 5 6 4 0 c c 6 2 0 0 4 6 b 1 0 3 4 a 0 0 1 c 6 3 5 2 d 9 c 1 6 4 4 6 0 4 0 1 4 c 4 9 1 a 4 2 4 1 2 1 4 0 6 5 0 6 c a c 4 6 9 a 3 1 4 5 a 0 b 2 4 9 b 1
c 5 c 6 c 6 5 d c 1 3 6 0 0 6 d 1 c 6 d 4 d c 6 c 4 3 5 6 d 6 6 c d 6 b 6 6 4 3 a 5 1 c a 3 e a 0 4 5 c d 6 6 d d 3 d b 5 0 c 6 6 e 6 0 c a 6 4 d d c 6 e 6 6 4 3 3 4 c 1 c 1 6 2 6 3 b 4 c 5 3 b 5 b 5 c 9 a 0 b 4 4 5 0 6 5 1 3 1 6 6 5 2 d 9 1 9 5 0 d a c 6
9 c b 0 9 1 9 2 c 4 d 9 2 2 1 1 1 1 3 6 c c c d e c 9 2 4 1 4 9 0 0 a c a c 4 0 2 4 2 2 d 1 d c 0 c 3 e 2 a 5 9 0 2 9 0 a e 2 2 1 4 2 d b b a 1 0 4 9 2 5 d 6 c 6 0 b 3 4 b 4 2 1 2 c c e 0 0 5 4 0 b 4 0 d 2 6 2 4 5 a a a 0 a 3 1 3 c b 9 4 1 9 e d 2 1 2 2 4
0 6 c 5 5 2 6 3 4 d 9 4 4 0 6 c 6 0 6 b 5 e 1 6 e 6 2 3 4 6 5 1 5 2 5 9 4 1 5 6 b 1 0 3 0 6 a 3 c 9 6 6 b 2 0 0 2 6 6 c 6 1 3 5 6 0 4 c 4 4 6 4 4 1 b 3 d b 5 5 5 6 6 e 1 c 9 4 c 4 a c 6 2 6 6 d 0 2 5 1 5 4 6 1 4 1 4 d 6 2 b 2 4 5 5 6 6 6 4 5 d 1 0 c 6 0 6
4 2 0 1 1 5 0 1 a 0 a 5 0 a 0 4 3 6 0 2 0 0 3 6 5 3 1 4 4 b 6 4 9 9 6 d 6 d 6 b 3 1 1 0 4 0 5 2 d 0 3 e 3 6 2 b 0 2 d 3 4 1 6 0 4 4 3 a 0 0 1 0 5 9 9 2 2 4 6 6 5 1 a 9 4 0 3 9 9 5 3 9 4 1 4 5 2 5 2 a 1 5 0 6 3 5 0 6 9 6 5 9 6 e 6 5 6 6 4 6 1 2 0 1 1 5 0 3
1 a 4 2 a b 3 6 9 c a 9 0 2 0 3 4 0 4 9 1 a e b 4 9 9 5 5 3 9 0 0 b 6 a 5 3 5 1 4 6 1 0 5 4 4 b b 0 0 c 2 1 3 a 0 0 0 c c c 2 4 2 b c 9 a b 0 b 4 1 a 5 4 4 5 4 4 1 5 c 4 9 a 0 1 5 0 2 6 a 3 5 3 5 1 4 4 0 2 0 9 5 a 4 0 4 4 4 5 0 2 4 9 4 4 c 3 c 5 2 0 3 2 2
4 1 0 5 9 0 4 1 6 5 6 4 4 6 9 a a 5 3 4 4 6 2 6 4 0 6 9 3 0 0 6 a 5 6 6 0 2 5 4 6 6 2 0 d 1 c 2 3 0 0 6 2 6 4 c 5 4 b 6 a 9 5 0 a 6 6 6 0 6 b 2 9 0 6 6 a 6 6 0 6 a 0 6 6 5 6 9 6 1 4 6 6 6 0 9 1 0 1 6 2 4 b 4 6 2 6 3 6 0 5 9 6 2 5 2 0 1 9 6 1 6 c 6 4 1 0 5
0 4 b 4 0 2 4 6 6 a c 6 b 3 0 0 9 d b d 9 c e d a 6 c b 4 a 0 b 3 6 b 1 1 4 a 5 0 b b 0 4 3 a 3 5 b e 6 d a c 3 a 9 2 c e 5 b 0 c 0 0 3 4 5 1 3 e 5 d 4 0 0 c 0 d 4 4 c 0 b 2 4 4 d 4 3 4 c e d 3 c 4 2 5 4 0 e e 0 3 b 4 5 a 5 d 0 0 d a a 4 c 2 1 2 c 1 c a c
3 3 0 4 c e 2 0 c d d 9 1 2 0 9 4 2 b 0 4 d 9 b 0 4 d 3 5 4 4 b 0 1 a 9 b b 6 4 b 0 2 0 6 5 2 c e 9 2 9 4 6 d 0 0 9 b 2 a 4 9 1 d 5 0 d c a a 1 3 2 4 0 9 9 4 4 3 0 1 e a 2 a a c 5 4 c 4 0 b 9 b 3 6 a 1 0 0 0 a 3 c 4 c 3 2 0 2 a a 1 4 4 1 a c d 3 0 a 3 1 0
a 4 0 1 0 6 5 2 d 2 0 6 1 c 5 a 1 b e 4 b b b d 9 2 9 2 3 c 2 6 9 2 6 e 5 4 3 0 1 0 0 9 c 5 c c 3 c 4 9 b 4 0 b a b 0 c 5 3 3 0 6 0 0 b b 4 c 2 1 b d 6 d 5 4 2 9 5 5 e 9 d 0 1 9 6 b e 2 c 3 6 0 0 5 5 b 0 0 0 0 4 c 5 d c 2 d 0 1 3 5 4 6 9 a 0 a 1 d a 2 c 5
0 3 a 2 b 0 3 a 2 1 4 6 0 0 b 0 0 0 b b 2 6 9 5 e 5 a 1 3 c 3 4 2 9 a 6 0 2 c 0 9 c c 9 e c e b 0 9 c 6 c a c 1 9 4 c 0 b 6 a d c 5 3 4 b 0 c 0 b 9 0 d 4 a 9 b 1 d c 5 0 a 9 4 2 c 0 1 6 0 2 b 0 d 3 0 1 4 0 0 2 3 3 1 4 4 c 0 9 2 b d b a b d 4 5 1 1 1 0 1 b
5 0 4 c 4 9 2 5 2 a d a 3 5 2 1 2 6 c a 9 5 5 0 0 0 a 2 b 9 0 d 9 5 d b 6 1 0 0 c 1 1 0 2 b 5 0 2 6 0 b 3 2 b 6 3 1 b 9 0 6 5 2 0 6 2 0 1 c c 3 5 9 a 1 5 c 2 4 b 3 4 d 1 1 5 2 0 4 4 1 4 c 1 0 4 a 6 2 3 3 1 0 d 0 b 0 4 4 0 4 0 9 1 0 4 4 4 4 0 0 6 b 5 2 0 1
5 0 2 0 3 4 a c c 6 6 0 9 b b b 9 1 e 6 c b 1 1 4 c 1 2 9 0 6 0 c e 0 9 5 a 1 c 0 6 b 3 0 9 c 0 1 3 2 e 9 6 4 c 0 3 2 5 1 d 6 d 0 5 5 b 9 b c 0 a c 4 c 2 3 5 0 5 e e 4 5 3 1 0 3 5 0 0 5 a 0 1 9 9 a 0 c e 9 4 2 4 0 4 9 9 4 a 5 a 4 c 0 0 9 6 9 0 b 0 3 0 a 3
5 4 6 0 2 0 2 6 6 d 0 0 3 5 0 4 3 6 4 0 6 0 1 b b a b 6 1 2 1 a 4 3 1 4 4 6 6 3 1 0 0 a 9 0 4 b 0 4 a 1 1 0 2 6 0 0 4 a 0 6 6 2 b 4 5 d a 0 0 0 0 5 3 5 5 d 4 6 9 2 6 a a 9 1 2 b 6 3 6 0 c 9 1 0 2 6 6 4 5 0 1 0 0 6 4 4 6 9 3 2 2 0 a 9 1 b 4 3 6 6 0 4 1 0 4
9 b 4 1 1 0 9 0 9 4 0 2 9 3 b 3 1 0 e 4 d d b 9 9 a 2 4 b 4 5 c 9 b 9 0 6 a 4 a 0 5 a 2 0 9 5 9 3 4 c b 1 0 b 1 1 9 0 b 3 c 0 c 2 4 0 b 0 0 0 3 4 2 0 e a e 3 5 1 c a 0 1 3 2 0 c 4 a 3 6 c 1 0 4 2 0 a 0 3 9 1 0 1 3 0 a 4 4 1 5 b 5 a 4 0 0 a 2 9 9 0 1 1 3 1
b 9 d 1 3 e c 0 3 b b 3 0 a 3 0 4 1 5 1 5 4 c 2 d a 4 0 1 c 2 0 0 4 0 0 c c 0 0 0 a 9 0 0 2 4 0 1 4 0 4 0 5 9 1 9 c 0 4 4 0 0 d e c 4 3 0 5 3 9 9 0 e e 9 d 4 c 5 1 b 4 2 2 2 d 1 b 0 c d 2 0 0 9 b 3 6 9 4 0 0 a c 2 0 4 4 9 a 0 3 1 3 5 2 b c 4 6 c 2 9 0 9 5
e 6 9 6 c 1 5 0 6 1 a 5 a 3 c 2 0 9 4 c 0 5 b 0 c 6 5 1 6 b a 6 5 4 5 6 b 4 4 6 4 4 c b 9 3 a 4 5 0 d 4 b 9 1 0 c 6 c 6 c 4 d 4 0 3 2 6 c 5 c b a 6 d 5 2 6 5 0 6 d b 5 5 4 6 0 6 c 9 6 4 9 d 0 0 0 0 6 a 1 0 b a 6 6 1 6 2 0 1 c 6 c d e 9 0 6 2 6 1 0 9 0 2 c
1 2 1 b 0 9 d 4 0 b a 0 0 4 0 0 3 a 3 3 3 d 9 9 c c 0 9 1 2 b 9 9 a 0 3 0 1 0 2 1 4 a 2 4 1 1 a 4 9 2 0 4 a 3 5 2 9 a 1 9 5 3 2 2 1 4 3 1 d 2 b 0 4 c 9 5 1 a 2 c b 9 0 1 c 0 9 b 1 0 9 3 0 2 c b d c 9 2 0 3 2 b a a 2 4 0 0 a 1 3 1 a 2 9 a 4 2 d 5 a b 0 1 9
2 5 1 1 1 c 5 9 e 3 9 c 5 1 b 0 4 c 4 a c 0 0 0 2 6 5 e d 5 b 1 a e 0 d d 3 e 5 0 d 5 6 9 6 9 6 0 3 0 b 5 c 4 a 6 3 4 2 4 4 a 6 4 d e 4 6 6 6 6 e 5 1 9 9 5 c b c 4 d 6 c 2 c 4 a e a c e 4 6 b d d d e 9 d 6 0 a c b d 3 c d 6 c 6 d a a 3 6 c 5 0 b 5 6 4 1 1
a 1 d d 4 6 e 6 0 c c 4 d c 2 d d 9 3 b 5 5 6 4 d 6 b 4 0 9 4 b 3 6 3 1 0 0 3 a a 2 c c 6 d 6 c e 6 2 d a 1 d 6 0 e a 0 4 2 4 2 b 1 0 1 1 c 0 0 6 b c d 3 a 0 2 3 6 b 4 4 c 0 0 a 5 4 5 6 c 2 0 0 4 6 0 c 1 c 3 9 2 c 9 b 2 c a 1 a c d 3 2 9 c c e 6 d 1 c a 1
d 2 0 0 5 c 2 6 6 0 a c 1 e 0 4 5 d 0 d 4 c c 6 2 d c 5 6 0 d 9 3 1 2 b 5 6 6 9 3 3 4 b d 1 e 1 3 e 2 2 b b 3 2 e 9 0 a c a 0 1 5 c 9 0 0 9 1 1 0 1 3 6 a 6 1 c e d 6 c c d 2 2 0 3 1 d 4 9 e 6 3 5 3 4 b 9 a e e 5 2 0 0 1 9 2 3 4 9 1 9 c 0 d c 6 5 a c 0 c 5
5 b 0 9 1 b 0 3 d c a 3 0 5 3 0 2 3 4 6 b 6 4 e 9 5 c b b 3 d b 9 9 2 9 0 c 9 2 4 0 0 4 4 0 5 a e b 4 e 3 0 a 6 4 2 d 9 0 1 3 c c 6 9 3 1 0 d b 0 c 0 3 6 9 2 9 0 4 d 0 b 2 4 c b c a e 5 4 a a 0 d 6 b 5 9 1 5 1 4 4 4 a b 1 c 2 c 0 2 4 4 3 4 a 0 e 0 5 3 5 d
3 3 3 0 1 0 4 0 5 5 0 0 c 5 2 9 2 9 6 1 6 e 0 6 2 6 5 1 1 4 1 9 0 4 1 c a d 0 5 4 4 b 4 5 0 b 2 6 0 2 9 9 4 0 1 0 a b 6 4 5 1 b a a 9 a 0 6 d 0 1 6 3 a 9 4 d d 0 0 e 5 b 1 5 c 6 0 c a 9 0 2 5 9 1 4 2 0 4 0 5 0 0 4 a 4 c c c c 6 c c 0 1 6 4 1 9 c 2 a 0 4 6
a c 0 3 3 c a 0 1 9 b 2 9 b 0 9 2 4 e 4 1 c a c 4 3 9 3 3 0 9 0 0 1 5 0 2 9 4 c 4 0 2 a 9 4 9 a 3 b 2 c 0 9 a 1 0 0 9 0 1 3 4 4 5 a c 9 0 a b 0 5 c 9 1 0 3 c 2 c 4 2 b a 1 9 3 c 5 4 2 e a 0 5 5 2 3 c 2 4 9 a 0 4 d 3 0 9 0 1 2 a 0 9 4 1 5 9 9 c 0 a a 9 c 2
0 6 e 6 0 c 6 d e c e 6 3 3 6 c 6 a d 2 0 c 9 9 e 6 6 4 5 0 c 5 6 b 4 0 b 2 1 6 9 0 4 2 b 6 9 6 d 0 6 6 c 3 0 c 1 5 2 4 c 0 0 6 5 b 0 e 4 6 6 1 9 1 2 3 e 0 5 5 2 5 5 c c c 0 4 9 1 9 e c 5 6 3 0 c 1 4 b 5 2 9 d 2 4 1 0 2 2 4 9 0 4 6 4 6 0 c 6 c d 5 d 5 2 6
c 4 2 3 a 4 0 a 6 6 5 3 9 0 c c a c 0 3 c 0 b 6 b 2 6 c 1 2 3 5 0 2 1 6 b 4 0 4 5 5 9 0 2 2 9 2 6 a 0 6 a 6 9 0 0 5 9 6 3 0 b 2 9 0 6 6 0 6 0 4 c e 0 2 9 6 5 c 6 b a 2 6 6 6 3 6 c 0 6 b b 0 2 d 9 d 3 2 e c 0 4 a 6 a 5 9 2 0 4 5 2 0 0 9 1 6 4 0 d c b 9 9 a
5 5 e 6 6 3 6 e b a 2 3 6 6 6 b 5 e 2 c e 0 1 6 b 6 6 1 e 6 e a 5 e 6 b 2 0 e 5 d e 5 6 e 4 c 6 6 6 6 4 1 e 6 d 6 6 6 0 6 c 9 6 9 e 2 a 6 6 6 6 d a 6 e e e 2 6 c 6 0 6 e 0 e 6 d e d 0 1 6 6 4 d e e e e e 6 c 0 e a d d b b 5 e 6 5 2 c 6 3 a 6 6 0 6 3 6 6 6
4 0 4 1 2 2 b c 0 2 5 0 4 9 9 0 b 4 9 b 9 3 a c 2 3 4 a d 0 0 0 0 0 9 3 4 3 0 9 1 d 0 1 d 0 4 a 4 4 0 1 1 b 4 4 4 0 0 9 9 c 4 9 0 4 a 2 1 0 b 4 9 9 4 e 5 d 3 0 1 c d 4 3 0 c 4 c 1 a c 6 0 5 b 9 3 0 a 9 d 2 2 0 c 1 0 2 6 b 2 0 1 1 3 0 1 9 3 2 0 4 0 2 a 2 0
3 a 5 c 2 5 c 0 e 2 4 d c a a 0 0 6 d 6 3 c 4 4 2 c 2 2 9 0 5 0 c a a 9 5 c 0 e 2 5 1 0 5 b 0 0 b 1 3 c 0 6 0 1 1 c d 0 5 d 4 9 3 0 a 4 0 d 1 b 3 2 0 c 0 9 3 3 1 c a 6 0 4 2 1 2 4 4 4 b b 4 4 9 3 0 9 9 a c 6 0 c a 0 a b 9 0 6 3 1 2 5 9 0 5 b 0 c c 1 0 1 1
4 1 a 9 4 4 1 0 d c 5 0 0 0 0 2 0 5 b 4 2 5 0 b c 1 1 9 9 2 c c 0 c 4 9 a c 0 0 b c 0 0 3 1 1 9 0 9 4 c 2 5 b 5 4 0 d 0 0 0 b 2 e 1 c 0 9 a 2 0 b c e d c 9 0 0 0 4 3 9 0 d 2 0 d 0 1 d 4 4 3 4 b e 4 5 3 4 1 5 1 a 4 0 c 5 9 0 1 d 3 c 0 3 4 0 0 c 4 0 3 0 4 a
9 3 b a 1 1 0 3 c 0 e 3 0 3 3 0 a 3 9 1 4 e c 9 1 3 9 1 5 b a b 0 3 e 9 9 1 3 2 1 0 a 1 0 0 c 2 2 9 4 e 2 0 0 a 1 a 2 b e 4 c a 3 9 1 4 9 9 b 3 9 0 b 9 5 0 9 c 1 5 5 a 3 2 0 3 a 1 a 1 c 0 0 4 1 0 3 4 3 5 1 0 1 3 0 0 9 1 0 9 b 4 3 4 4 1 0 a a 3 0 0 4 0 a 2
d 3 4 4 1 1 3 1 d c e 4 3 d 4 e 4 0 4 e 4 6 d 9 b e 4 4 2 5 6 1 0 5 0 c 0 3 2 4 e a c c 4 1 4 4 c 3 a e a e 2 c c 6 a 2 0 c e 6 0 3 b 1 9 0 3 2 c 1 9 0 6 c 4 5 6 6 6 5 4 1 e 6 d 5 2 a 5 4 4 2 b 6 e 0 e b 2 2 c e e 0 c 4 4 0 2 6 9 1 a 9 c e 5 0 6 9 d 1 0 9
0 4 2 5 b c 4 1 1 1 4 b 4 0 0 0 0 4 2 c 2 6 3 e 2 9 9 3 0 c 5 5 2 9 4 c 6 1 4 c 0 c 3 0 e 0 a 0 b 6 9 0 1 5 b 0 0 6 b 5 d 4 4 2 d 6 0 e c 9 d 2 c 1 1 c 6 a 4 5 4 b 1 3 6 9 4 a a 0 4 9 6 3 0 c 5 4 9 a d 9 a 1 b d 2 5 0 6 2 1 4 9 c c 9 b c 5 b 9 0 4 1 2 3 b
6 9 4 a 5 6 9 3 0 0 5 9 0 6 1 4 2 3 4 4 2 0 6 e 2 9 0 6 1 b 3 c 4 5 d 2 6 b 4 b 9 3 0 3 2 9 6 a 4 6 4 3 2 4 2 6 2 a 1 0 6 6 6 4 e 6 3 0 4 0 a 3 6 9 4 d 6 e b 4 9 5 5 5 1 a 6 9 c 0 6 6 5 b 4 b 6 4 6 6 6 6 0 3 6 0 4 0 4 6 a 3 0 0 2 c 6 0 0 1 4 0 5 9 5 0 4 9
0 1 1 3 1 c a 3 5 c c 2 4 4 2 5 4 5 2 0 2 d d 2 0 2 9 3 4 0 3 0 5 3 2 1 4 4 6 0 a 1 1 9 0 a 4 e 0 3 a 6 9 c 1 6 a 3 2 0 c 1 6 1 3 1 4 9 d c 4 9 a 0 d 9 6 a 3 2 0 0 6 b 0 b 5 4 b 5 4 5 5 c a c 4 5 0 4 4 6 a a 2 0 3 3 6 6 0 5 0 b 9 0 a 0 b 1 0 2 4 c 0 1 1 0
2 3 4 5 9 0 5 c a d c 4 5 0 c 0 e 0 e b e 0 b 1 0 d 1 9 c 0 4 1 c 9 6 d 6 4 2 1 0 0 0 1 1 0 4 0 d 2 e d 9 6 d e 1 6 9 d 9 d a 1 c 4 6 2 b b 0 4 2 a 2 d 0 4 6 6 6 4 d b 5 a 2 5 d 1 6 2 4 9 2 c 3 9 e e d d d 5 d 0 e 6 a 3 5 0 4 e 4 0 a 5 d 9 b 0 9 b 0 5 c e
a b 0 e 5 a b c 5 1 0 c 0 6 5 6 5 4 2 0 2 4 0 c b 5 0 d a 9 1 a 4 a e c c c 9 3 2 0 2 3 0 b 2 2 0 9 5 a 5 0 3 6 3 0 c 0 5 5 0 a e 4 e c 2 1 9 1 1 a 9 4 5 e d 9 0 0 5 5 b 1 5 b 0 e c 9 0 9 2 0 3 9 4 1 5 6 9 3 9 0 2 c 9 b c 1 1 c 9 b 0 9 6 d 1 0 d 4 5 9 5 4
0 0 1 0 2 c 0 0 9 0 a c 2 9 2 9 1 2 2 0 2 3 0 b 0 c 1 3 0 a 1 c 9 b 6 0 0 1 3 a 0 2 a 2 a 9 a 9 0 3 3 0 a 2 4 c 4 1 c 0 0 0 a 9 c 2 5 a 9 b a 1 1 4 d 4 0 d 1 1 0 c 4 4 c 3 0 1 9 4 b 0 1 a 4 b 0 9 a 2 c 4 b 3 4 9 0 0 4 d 2 c b 4 4 3 0 a 0 a 2 0 c a 3 0 a 2
c 4 b 2 9 0 4 6 2 0 d 6 b d 9 0 5 3 c 0 0 0 e c 4 9 c 0 4 0 2 2 c 4 0 9 a 0 6 5 0 2 b 0 5 2 3 0 a c 9 0 3 c c d c a 2 c c 1 c a b 5 c a c 4 2 b c 5 a 2 6 1 c a 4 5 1 c 6 0 c a 6 6 1 c 1 b d 3 0 0 6 6 d 1 0 3 d 5 c 1 0 0 9 b 9 4 a c 0 9 4 0 9 0 c b d a a d
1 3 9 b 0 b 1 6 b 4 0 a 2 0 4 1 5 5 c 0 1 9 0 9 0 0 a 3 0 5 1 d 3 9 c b b b 3 1 2 4 1 2 2 5 c 0 c c 5 e 5 9 3 6 4 9 0 0 5 0 5 2 a 3 9 c 1 a c 4 4 2 c 6 4 4 3 0 6 0 6 0 2 9 0 0 d 5 2 0 d 0 a 3 3 a 6 3 6 5 0 0 4 4 3 0 a 0 a a 4 c 9 4 b 4 5 0 1 b b 1 5 0 0 6
c 4 b 4 d 4 0 5 d b d 2 a 3 9 3 5 5 0 9 4 2 e 0 e 0 d 2 4 6 a 0 9 2 0 4 a 0 6 4 0 b b c b b b 0 9 4 0 9 2 e c a 0 3 c 1 b 3 d 1 9 3 5 e b 0 9 0 9 2 c c 5 a 5 9 3 1 9 9 6 0 b 3 4 5 2 b e 0 d c 0 b 1 5 c a 1 6 a 9 0 4 1 1 2 c 9 a c 1 e 9 0 9 0 c 4 9 c 0 4 b
b d a 9 9 e 1 d d 0 2 c 9 9 0 0 c 9 9 2 0 2 0 d 1 d a 3 c 4 3 5 c c b c 0 a 4 0 0 6 9 1 b 2 2 2 a 0 5 0 2 4 b 4 3 2 a 0 0 3 9 b 1 c a d 9 1 0 a 5 9 2 4 d a 5 0 6 1 1 a 2 c 4 c a a d 0 0 0 0 0 0 a 5 4 3 b 0 4 4 4 9 9 3 b c 9 4 0 1 1 4 a 3 c 0 d d 4 0 9 0 5
c 0 3 2 2 2 0 3 5 b c 0 0 0 4 2 2 4 4 1 4 9 3 3 d 9 d 5 4 3 b e 3 5 0 3 6 0 5 4 b 4 9 a d a 9 b 1 4 1 2 2 0 1 4 a 3 1 c 4 4 6 9 0 1 2 1 c a 0 0 6 2 e a 2 e b 4 3 c 6 a 0 9 3 4 c 4 0 3 c 9 c 2 6 0 4 2 4 6 0 b b 2 9 1 6 5 0 2 1 b 9 c 0 9 4 c 0 c 6 c 5 0 0 a
2 5 0 6 9 2 5 0 2 6 5 4 3 6 6 0 9 e 1 1 3 0 9 6 a 6 6 e 5 a 3 6 1 4 1 6 d 5 0 6 6 4 9 5 9 4 c 6 6 0 3 5 a 2 6 0 4 6 1 6 c 0 d 6 9 c 5 1 4 6 9 6 e 4 c 5 2 6 5 e 0 6 a 6 6 9 6 2 6 d 0 2 1 4 4 0 c 0 d 3 1 5 4 d 1 3 6 c 6 a c 2 9 6 d 0 d a 6 6 5 0 e 6 9 0 5 6
5 2 6 c 2 c a 1 0 b 1 a 2 6 2 4 3 3 c 4 3 2 b b 4 0 1 4 1 3 a d 4 a c 2 3 9 5 4 3 1 9 1 0 0 0 b 4 3 4 1 5 c 3 6 2 4 a 0 0 0 5 0 b 1 5 1 2 c 4 0 6 9 e 9 6 d a 5 2 d 6 9 c b 0 2 1 9 0 a d 0 1 9 0 1 4 5 2 2 2 1 1 3 5 2 2 4 0 4 0 b b a 0 a 9 1 9 3 5 b 5 4 2 3
9 9 9 c 4 6 c 6 5 1 5 c 9 4 b 3 0 a c 4 a 2 4 1 4 2 b 9 4 4 0 c 3 1 1 3 5 4 1 2 5 0 0 a 0 c c 0 3 a 2 b 3 d 0 6 2 b 3 a 2 0 4 1 d 6 4 0 1 1 3 9 9 3 4 4 6 5 b c 0 9 9 1 d 0 3 9 3 c 9 5 4 c 9 2 0 9 0 c 3 4 9 c 0 3 4 0 5 9 e 3 0 3 a 0 4 0 2 0 0 2 0 a 4 9 0 c
4 0 5 1 c 0 2 3 9 c 4 a 5 6 d 5 a 1 1 3 a d a e 6 d 5 e c 2 3 4 0 3 c 2 0 3 a 0 b c 2 0 6 0 6 3 c 5 d 1 6 0 d e 6 6 9 b e 1 6 d d 6 d 5 0 3 a 0 4 2 6 b 5 a 1 3 4 3 e 1 6 5 4 0 a c 6 6 4 4 a e 4 2 4 e 6 4 b d e 2 e 4 0 a 6 4 4 e 2 e 1 0 1 b d d 0 0 6 5 1 e
a 2 1 c 9 e 9 d a 9 0 c 9 0 1 5 1 c c e b 3 3 3 0 4 3 2 1 1 0 9 5 9 c 4 4 0 9 b 1 0 1 9 e b b 3 5 2 4 0 a d 4 4 0 1 9 4 4 9 0 1 2 4 5 a 9 0 1 3 c 3 3 3 c a b 4 e c 6 b c 2 0 9 b 1 2 9 6 3 9 2 0 9 0 9 2 1 0 9 c 0 4 9 0 5 1 0 c 0 0 1 b 2 d 0 4 1 9 3 0 a b 4
1 3 0 c 9 3 6 0 1 e 4 6 0 0 6 d 5 3 c c 4 6 9 e b 4 d 6 4 4 2 e 9 2 2 3 b c 4 5 e b a d 4 0 5 e e 2 6 0 d c e 2 0 c 1 e 4 4 0 a d 5 c 3 9 d 3 0 1 b 0 e 1 e 9 0 1 6 c e 0 e e 4 b 2 c b 3 0 9 3 d e 5 6 a 5 3 6 1 0 4 4 e 6 b a a 9 4 2 6 3 9 a 3 c 0 c e 0 4 6
0 4 a 0 b 6 4 0 3 6 0 5 9 4 3 b 2 c d 4 0 b 9 b 0 0 1 0 2 a a 6 0 c 5 4 1 4 0 1 3 6 0 0 0 4 d 3 3 9 4 c c 6 3 a 9 9 c 4 3 9 0 5 5 9 6 e 1 5 a 4 e 4 e 6 d 3 9 b 0 2 1 b 0 c 1 3 4 0 2 9 2 1 0 5 9 9 c 4 9 9 a 2 3 2 6 2 5 9 1 e 0 3 4 5 b 0 c a a 4 c 2 a 9 1 2
2 0 4 9 5 6 5 4 b 0 3 2 9 3 b e a 0 c 3 3 0 5 c 3 6 0 9 9 4 1 4 c 4 a b 4 d c c 1 0 a 5 4 a 6 3 c 6 1 d 2 2 d 9 4 c 1 c 6 4 5 0 d 6 c 4 2 5 0 0 5 0 c e 0 0 d a 2 6 e 0 a c 0 1 9 3 6 1 4 d 5 a c a 6 0 5 4 3 0 b b c 9 0 a 4 5 1 c b d 6 2 5 4 1 b 0 a 5 0 0 b
0 2 a 1 d b 4 c d 1 c 4 4 2 1 0 0 4 e 1 9 e e d d 1 0 c 1 b b 4 e 4 3 c a 3 4 2 3 0 4 1 1 2 a c c 3 2 e a 4 a b 0 5 a 0 e c 3 d 0 9 a d a 2 c c 0 2 d 3 0 1 3 0 6 3 3 b 3 b 1 0 a 4 3 a 0 0 b b 0 c 2 4 0 0 1 6 c 0 a 4 c 0 2 2 9 b 5 1 b 1 0 1 0 e a 6 b 3 2 0
0 3 9 e 1 c 9 0 0 0 4 1 0 5 2 0 5 6 0 5 5 0 2 e 1 0 0 0 0 b 9 b 4 b d 0 0 c 4 2 2 9 2 4 0 1 9 b 0 9 6 4 2 4 2 6 3 d b b 5 2 0 e b 5 c 4 3 a a 0 5 e d 3 5 e 9 b 9 0 c a d c 1 a d 0 0 c 9 0 2 4 5 c 4 c 6 6 1 3 b 2 5 3 c b 9 c 1 b 2 a 0 2 6 2 9 6 b a 5 3 5 1
6 0 4 9 1 3 2 1 c c 1 9 0 0 1 9 c 5 d 4 b a 5 d 3 5 9 b 0 1 4 c 0 6 c 0 6 0 9 d 0 a 1 4 2 b 4 3 1 1 1 d 4 4 1 4 2 3 0 b 4 4 6 4 2 6 9 a 2 0 b 5 4 c a c 9 9 9 0 3 5 b c 3 0 6 c a 3 4 0 9 9 5 c 2 0 6 a 6 4 0 0 1 0 0 3 1 c 5 4 9 a 4 0 6 6 3 b 1 c 4 0 5 2 0 0
1 2 0 5 9 2 b d 0 c c 1 1 0 5 3 0 5 5 3 0 4 0 6 d 0 c 5 4 4 5 9 3 b 3 9 6 4 6 9 1 3 2 9 b 9 b c 3 6 2 b c 0 3 0 9 0 a 0 3 1 5 4 6 3 6 a 9 e 0 0 a 0 1 5 0 c 4 5 5 1 5 9 6 b a 5 d 6 4 b 5 0 3 3 3 6 3 1 1 0 c 5 0 2 1 5 0 6 4 2 2 9 5 6 0 2 c d 0 1 5 1 2 3 0 5
3 0 0 e 2 4 c 5 6 1 1 1 a 0 3 6 6 1 6 0 4 0 5 d 0 a b 4 2 3 0 9 5 4 e 0 1 0 3 0 0 9 9 3 b 0 a 9 3 9 5 4 4 0 2 6 1 0 a 1 5 6 4 c d a 3 a a 0 4 9 6 5 a d 6 b b 3 c d 6 e b 0 2 e 9 a 1 d c a c 3 2 2 6 a 6 6 0 4 c 5 0 1 3 3 d 0 9 c b c a c 5 4 4 4 9 9 3 9 5 5
1 0 6 c 2 9 0 0 e 4 5 2 1 1 1 4 3 4 9 5 0 b 1 e 2 0 0 6 0 5 a 0 1 c d c 0 0 2 b 4 4 2 4 c 2 b 0 9 b 4 9 5 1 4 4 5 1 a 2 0 b 1 0 4 5 d d 3 d c 9 3 3 1 0 2 9 2 2 5 0 4 0 0 1 2 1 0 1 b b 9 9 b 4 5 3 4 0 5 0 9 0 6 5 1 0 a 4 a 3 5 9 5 a 3 c 0 1 0 4 b 0 2 2 0 6
4 2 1 2 a e 6 4 c 9 0 0 4 4 5 4 4 4 e 2 9 0 b e c 6 b a 4 6 2 a 9 2 5 b d c 6 6 0 3 2 4 2 2 9 c e 0 4 e 4 5 c 4 2 4 9 4 1 a c a e 6 d e a 4 9 b 4 2 0 4 6 0 4 a 5 6 d d 6 a 2 1 4 1 a d e 5 0 3 0 b 6 0 5 9 9 6 1 6 2 5 a e c c 4 9 c a 2 9 4 6 a d c 4 a 6 6 6
9 2 5 a 2 0 4 0 4 3 5 2 9 9 9 2 1 6 b 0 a 0 c 9 5 a 1 0 1 9 1 3 0 d b 0 5 9 0 0 3 0 0 1 c 3 c d b 3 1 2 4 0 b 3 2 1 1 2 5 d 4 1 d 0 1 b 9 b a 2 3 a 4 0 0 1 1 4 0 b 0 0 c 9 a 9 0 4 3 a d a 0 a 4 a 1 b 2 4 0 1 4 5 3 4 c 3 b 0 2 a 0 a 5 c a 5 a 6 0 b 4 0 1 9
d 2 4 2 6 6 4 4 0 b a 3 1 4 6 c 6 c c b 5 c 6 0 e 6 0 4 4 6 5 9 0 4 5 1 b b 0 5 1 2 0 0 4 4 2 0 0 5 6 e 9 4 0 6 b 2 5 b 6 5 c 9 e 0 1 0 a 3 0 2 4 4 1 d 4 c 9 c 2 6 6 6 b 9 0 4 3 6 2 0 6 2 5 3 2 2 3 6 0 2 4 5 0 0 0 9 c 5 a 0 b 4 9 9 1 1 5 0 5 e 0 1 0 2 1 4
0 2 0 6 0 0 0 0 2 6 4 0 9 1 c 9 1 d a 1 5 c a 5 1 4 5 0 4 2 3 6 9 6 4 6 0 6 9 3 1 6 0 0 c 0 d 4 6 b a 4 a 5 4 c b 0 9 6 4 0 a 6 6 0 6 6 0 6 1 0 0 2 c 3 a 6 0 b 2 0 2 6 6 6 3 b 6 5 9 6 6 9 2 4 c 4 c 2 d 0 9 0 9 6 4 a 4 5 2 b 4 6 0 0 2 c 0 9 2 4 0 b 0 b a 5
a 4 9 5 1 6 6 2 b 2 5 5 b 4 0 a 4 0 e 3 b 9 2 3 9 6 0 2 5 0 c 6 3 4 6 6 c 2 0 5 4 2 0 0 3 5 0 2 1 0 0 1 c 4 0 d 9 4 c 4 1 5 d 0 4 6 2 4 b 6 a b 3 0 e 4 b 6 0 0 2 3 0 1 9 2 5 c 6 0 2 b 6 d c 9 c c 6 0 6 6 b b d 6 4 0 5 1 9 c b 5 4 b 9 4 1 3 c 0 c c a 0 c b
b 6 4 2 5 6 6 5 1 c c 6 a c 6 3 6 4 3 6 4 d 6 0 d 6 a 6 6 6 1 b 3 5 5 d 1 0 6 6 4 6 0 3 4 6 5 0 a 0 6 c 3 2 9 6 1 0 4 c 6 5 2 a c 6 9 a 0 4 6 b 6 4 e 3 6 3 3 3 6 4 5 d 2 e 0 4 0 6 1 c 4 1 5 5 4 a 6 6 6 6 2 6 1 6 0 4 c 0 0 c 0 4 4 a 6 6 5 a 6 c 4 9 a 4 5 6
0 3 4 c a c 3 5 9 0 2 0 9 c 1 3 3 4 d 1 2 c 9 c 4 2 0 2 3 4 9 0 0 0 0 b 5 0 5 0 3 3 9 1 0 2 a 1 2 4 9 e 4 2 9 4 9 a 3 1 a 4 6 4 a 9 9 4 9 b a 0 9 4 b 9 3 0 b 9 a 3 5 b 4 2 4 1 c 5 0 9 c 1 0 0 2 9 4 1 4 0 0 0 9 3 0 2 3 c c 4 b a a 0 3 c 4 b 2 0 9 c 0 0 0 b
9 1 0 9 4 5 2 6 c b e 4 a d 6 1 6 3 9 4 6 c 6 d a 4 a 6 6 6 4 2 e 6 6 1 0 a 6 3 a 6 0 b 5 6 6 c 0 3 6 e 0 5 9 3 c b 4 c 6 3 c 4 5 d 0 0 c 4 5 b 6 5 e 4 5 6 2 9 6 6 6 3 2 0 0 0 5 6 c d a d 3 6 c 5 6 6 1 6 3 6 9 6 0 4 9 b 0 a 1 4 2 1 4 3 5 b 0 e 0 c b 1 9 5
1 5 1 d 0 e 4 4 0 1 3 4 0 6 2 6 1 2 0 3 0 4 5 e b 5 9 c d a 9 c 3 d d 5 c b b 5 c 9 4 0 6 c 4 a d 4 4 6 4 0 c 5 5 0 4 4 c 0 0 d e 4 4 c 9 1 c 4 c 1 6 e 6 9 b c 2 1 9 3 0 0 c 5 c c 4 3 5 5 1 b 9 d 5 2 0 9 5 2 4 a 0 9 c 9 0 a 2 2 d e a 9 1 3 6 6 9 6 0 5 6 9
9 1 1 1 0 b 6 1 c a 5 3 0 a 5 c 0 0 a 0 4 c e 5 d 0 9 3 3 b 0 0 d 0 5 d 2 0 0 3 c b 9 c a 1 c 0 2 4 3 b 9 a b 0 d 6 a 1 1 b e 1 d 3 6 c c 5 d 0 b 1 c d 2 d 3 4 6 6 b c 6 c 1 1 4 4 c 0 2 c b 1 b d 0 1 e b 2 5 a 1 1 2 9 b 4 b b 5 1 5 9 3 b b 2 d 5 2 c 0 3 2
d 1 0 3 e 3 4 4 0 3 2 6 0 c 1 c 0 2 a c 1 0 c b 1 0 4 3 0 9 5 6 e 0 0 a 4 6 5 9 a 3 b 9 1 1 9 b 0 1 b c a 6 0 e 0 3 c 0 e d c 4 3 0 4 3 d 2 b 0 a b 2 3 0 0 6 5 0 0 3 9 6 1 d 0 5 4 3 2 6 c 2 0 0 5 0 2 e e b 9 c b 9 4 a 5 6 1 6 0 2 b 9 4 a 2 0 e 4 b 0 0 b c
4 4 0 2 3 2 1 c 6 0 0 2 2 5 c 3 c c 2 e d b 0 b 0 4 2 0 c a b 1 4 6 b c 6 6 e 2 0 e c 1 b 2 a 5 5 b c 3 0 9 5 3 5 3 c 0 c 2 6 6 c 9 6 6 4 4 3 6 b 4 b 0 e 5 0 3 e c 4 9 b 9 6 2 d e 5 3 e 2 0 b 2 c c e 2 5 5 b c e 0 0 2 1 3 3 9 9 0 e a 0 1 1 4 b b 0 6 0 a 9
0 0 9 9 6 1 4 c a 0 3 2 0 6 0 9 0 e 6 6 4 4 6 0 b 0 2 2 a b 3 d 0 0 b 4 0 0 c 9 c 0 0 1 9 1 2 4 4 5 2 1 e 2 0 6 4 9 a 0 6 5 0 b e e 1 0 0 5 a 4 0 b e e a e 3 0 1 0 b 6 c 0 d 2 0 b b 3 b 4 6 0 a 0 e 0 9 0 2 6 6 a 3 b 9 b c 2 0 5 2 2 2 1 5 d 6 4 0 4 9 b 4 5
c b 4 a 4 d 1 b 3 a d c 3 e b 4 1 2 9 b 1 5 0 b c c 9 6 2 4 0 a 9 c 5 9 6 5 5 c a 4 c a b 1 2 0 2 5 1 9 2 b 9 9 a 4 1 0 9 d b 5 4 2 6 c 9 d 3 b 1 0 b c 4 c 0 6 a 2 5 9 6 4 0 3 0 5 4 3 5 3 b 9 2 0 1 2 c 9 9 2 d 9 c 1 d 5 5 c 2 d 0 b 5 1 d e b e 6 a a 2 9 2
4 0 5 c a a 0 b a 0 5 9 0 c c 0 9 b d 0 c a 2 e 2 1 4 b a 0 3 4 3 4 e 0 c a 9 1 3 2 c 2 9 1 0 3 2 2 9 a 3 3 b 2 2 9 0 2 1 a 0 0 0 4 9 2 0 9 b 1 3 0 3 0 5 2 0 0 0 9 c a 1 9 0 2 a c 0 1 d 0 0 0 9 2 0 d 3 9 9 9 4 0 b b 2 e 9 b 2 1 a e 0 1 5 0 0 d 4 9 0 1 2 c
c 0 0 b 4 1 b a 0 3 0 9 a 3 a 1 1 0 e 2 4 d b 0 4 1 3 5 3 3 1 0 2 2 d 0 0 c 2 c 0 3 0 0 b 2 0 2 c b 3 b 9 5 9 4 a a 0 4 c a 0 a b 0 c c 0 a 3 1 1 0 9 5 4 a 2 0 2 1 3 c 4 a 4 b 1 3 2 0 2 c b 4 5 4 6 a 4 3 9 3 4 0 0 1 0 0 1 1 3 b 1 1 0 b 2 3 9 5 0 d 0 a 0 9
0 2 c 1 6 4 6 4 d 0 d a 9 4 2 0 3 9 b 3 5 2 4 e 2 5 b b 5 5 4 a c 6 d e c 9 4 5 0 5 a 5 5 4 5 9 0 2 6 d 5 a a 3 0 0 a 4 6 5 0 0 d c c c 9 1 9 b 2 6 0 3 4 2 d e c 6 4 d 2 e 0 3 0 3 1 a 1 2 4 5 b b 2 0 1 4 5 6 3 3 0 d a a 0 b 1 6 d c 0 0 4 0 5 c 0 a 9 0 6 4
a 2 c 2 5 c 0 e a a 3 0 0 5 0 d 9 c c 9 5 0 5 6 d 5 2 1 0 d 0 c 3 1 3 0 a d c 1 b c b a d a b 0 0 3 5 4 c 0 1 5 2 3 0 3 4 0 a c c 3 3 5 0 0 4 4 4 a c b 9 e 0 9 4 1 0 3 d 2 c a 1 0 d 0 e 2 4 9 0 b d a 4 9 3 2 a a 4 a 4 4 a b 9 1 2 6 3 2 4 d 3 a 2 4 b 2 0 5
0 0 2 0 0 d b 5 9 4 2 d a 1 2 3 4 0 d 4 0 d 4 a 1 a 2 0 1 1 4 9 1 9 4 2 0 2 4 a 1 2 2 b 5 3 4 a 4 9 1 c a 1 1 4 b 9 0 0 0 4 b b 0 c c c a 0 9 0 a c c 4 2 a b b 0 b 4 1 1 1 0 0 3 4 1 0 b b 3 1 a 3 c 4 c 2 d 4 9 9 3 c a 1 c 0 1 a 0 3 6 4 0 9 a 6 a d 2 a 9 0
d 4 e 9 0 3 4 9 2 4 4 6 1 2 5 d 3 b 9 4 5 e d 9 e 4 4 9 5 3 e 1 c c 0 2 b c 0 4 0 0 a 0 9 5 d 0 2 b 5 e a 4 a 5 2 1 0 5 1 0 e 0 b b 9 c 9 0 c 0 0 3 9 3 c 0 0 c 6 4 5 6 1 e b 9 4 0 e d 4 1 b 4 b c 5 6 9 0 0 0 4 5 2 a a 0 a d 0 3 b b 4 b 0 3 4 d d 4 b a 4 6
0 9 0 5 4 1 1 0 6 6 6 1 9 6 a 2 a 2 2 5 5 4 1 4 1 2 3 4 5 1 0 6 2 5 0 6 4 1 3 1 4 6 a 1 c a 0 3 5 4 9 6 1 4 3 1 2 1 a 6 2 1 5 c a 3 6 6 a 1 a 4 d 1 6 5 3 6 6 1 6 e 4 6 4 6 6 9 6 a 4 6 6 1 0 b 3 9 0 6 1 0 a 3 6 5 6 0 6 6 3 2 6 2 b d a 9 9 6 9 6 1 4 4 a 1 0
6 0 4 a 4 c 1 2 6 0 b b 0 4 9 4 4 5 9 9 0 e 4 b 0 a 2 5 9 4 a 9 1 5 2 b 5 4 2 0 a 0 a 1 5 9 4 9 2 6 1 a b a 1 6 9 9 9 b 6 6 3 5 a a 3 6 0 0 b 5 4 3 c a 4 d b 6 c 4 5 d 9 d 0 1 c 0 2 6 0 0 4 1 4 c 0 a 6 6 3 a c a 4 c 5 4 b 6 0 a 9 2 4 0 0 0 3 4 6 0 4 9 0 9
d 6 0 6 b 3 6 0 0 9 0 6 5 1 c b b 4 d e e c e 4 9 0 0 c 3 a 1 0 3 c 9 4 9 6 a 6 d e 1 a 6 1 5 0 a 4 e 4 9 0 e d 3 6 a 9 c 4 c 9 e 6 c 1 0 4 b 4 d 1 3 d 1 2 5 5 2 6 c c 0 2 d 3 1 d 3 0 0 2 b d 9 c d d e c 0 c e e d 0 c 3 6 6 1 4 c d c b b d 5 d 0 3 0 3 0 a
b 6 a 9 b 0 3 4 e c 0 6 0 6 c d e 1 d d 5 6 3 b c 2 4 e d d 1 2 a 6 a e c 4 b 5 c 0 b 9 6 9 5 3 c 6 d d 0 5 c e 4 6 c 6 e 5 d 1 e 6 e 9 0 3 0 1 0 2 3 c 1 2 4 1 6 6 e 6 4 9 9 4 4 9 6 0 5 3 9 e 9 2 6 2 c 4 0 3 9 c b 5 0 0 4 0 5 0 e a e c a a 9 a 0 4 2 4 5 e
1 9 b 0 3 b c 2 c 9 9 a 9 a 9 b b 3 c 3 9 1 6 c 3 b 9 4 b 4 0 b c 4 1 9 5 d 0 e 0 4 3 4 6 0 6 3 9 5 a e a 4 0 c 1 0 b b 3 0 5 b 5 c 0 5 4 6 b 3 2 9 a 0 0 a a 0 3 5 c 2 c 0 0 1 9 0 4 2 1 a 6 0 4 4 b 0 1 3 1 5 4 c c 3 c e 2 0 2 1 4 4 2 6 4 9 1 e 2 0 1 0 a 9
5 b 5 c 3 d 9 3 5 4 4 0 b 5 0 4 2 3 5 6 1 3 5 c 0 c 2 0 a 9 0 0 1 9 0 5 6 2 4 9 4 1 0 1 b 1 0 a 5 4 9 2 3 9 3 4 1 0 2 4 9 5 6 9 0 0 4 1 0 a c 3 b 9 0 4 2 0 b 4 0 a 3 4 9 0 3 0 4 3 1 6 d 9 3 2 2 2 b 6 9 0 9 2 3 0 6 9 5 a c 0 0 5 3 c 9 c 2 4 2 2 4 0 1 9 5 4
0 4 e 0 a b 2 9 9 9 0 1 2 1 2 0 0 3 2 4 a e 9 b b 4 9 2 2 b 9 b a 2 2 b a b 0 9 3 0 2 0 c 0 0 0 4 b 2 d c 2 0 9 3 9 c 1 1 3 1 0 d 3 5 a 0 1 c 4 5 c c c 9 a 1 5 6 0 0 9 b d 3 1 3 a 0 a 1 0 2 0 3 e c 2 1 9 1 9 c 5 a 3 0 c 3 9 0 b 3 4 3 2 9 0 1 b c 2 1 2 1 4
9 9 5 1 a 0 0 a a 4 4 5 2 9 9 9 a 4 0 a 0 0 0 c 4 b 3 4 9 0 6 6 0 3 1 3 6 6 6 b 3 6 0 0 3 9 0 0 2 1 a c 3 4 4 e 1 3 9 5 c 0 0 4 3 4 3 d b 9 0 a 1 3 1 0 a 2 4 4 2 4 9 0 6 6 3 2 5 5 5 6 5 b 0 9 6 6 5 a 9 a d a 3 4 c 4 3 6 3 4 6 3 3 a 0 2 d b a 0 0 d 3 0 0 a
b 9 0 4 b 4 0 4 2 9 d 5 0 b b 9 9 4 0 c 4 6 9 2 0 e 0 3 b 4 1 9 b 2 4 9 a 3 4 1 0 c 0 a 9 0 2 1 b 0 9 e b 3 9 e 1 0 b 9 1 a c b a 4 c c 2 c 1 0 2 0 0 1 9 d 5 0 6 4 b d 3 9 c 1 b 9 2 4 b 9 0 b c 2 0 c c 0 9 4 0 0 e 3 a 0 5 0 1 c 1 a 3 b c 1 d c 1 9 b 0 1 0
1 6 b 6 b 0 6 1 e 0 a 0 4 9 3 4 6 5 4 0 a 2 d d 0 5 2 4 c 6 4 0 1 9 6 c 0 5 c 6 c c 5 6 9 6 b 2 c b 6 4 5 0 a a 4 6 5 4 1 9 c 6 5 2 d 2 5 3 6 2 9 c 6 1 4 1 6 2 4 5 1 0 3 4 9 4 b 1 0 e 0 6 4 0 3 3 c e c d 6 0 c e c 1 d 0 4 5 c 4 9 a c 2 4 0 6 0 d 4 3 6 4 3
a 9 a 0 1 c 3 5 c 9 c 1 3 c 9 4 4 5 4 0 c c 3 0 c 1 d 6 0 5 5 0 d 9 6 1 5 0 6 1 3 4 2 0 3 4 0 d 1 9 4 d 3 1 0 2 9 2 e b 5 c 9 1 4 c 0 d b d 0 9 3 a 3 2 0 b 5 4 5 0 0 a 5 1 c 3 1 6 1 1 c b a 2 4 6 5 4 b a 1 3 0 3 0 3 0 0 4 9 5 2 6 1 0 4 9 4 4 a 3 c 0 1 1 5
3 3 5 c 5 a c 0 0 9 c a 0 4 0 6 4 5 2 c 5 9 6 b 1 a 0 6 2 2 a 0 5 6 c 5 2 4 4 9 9 9 a 9 a 0 4 a 4 2 4 5 9 b 0 5 0 0 2 9 1 3 6 5 0 1 6 4 0 1 3 0 5 3 c 3 1 0 a 4 0 0 6 9 b 0 6 0 a a 5 3 6 2 0 2 3 5 6 6 6 6 0 0 2 a 3 1 6 1 0 2 a 0 0 1 a 2 9 0 1 9 4 a 5 9 2 a
6 5 b 5 b 6 0 e b a 2 9 1 6 a c c e c 0 0 3 5 2 d 6 6 d a c c 6 9 b a 4 e b d 4 3 c 0 5 5 c 4 2 b 2 c 2 1 6 a c 6 1 b 0 4 2 a 0 e 2 0 2 3 6 c 6 9 e 4 e c 0 5 c 9 1 e c e 1 3 b 9 e 1 5 0 0 6 9 0 e e 9 6 b 4 9 1 e a c 0 0 d b 9 c 3 e c 1 4 5 4 d e 4 3 1 5 d
1 4 c b 1 a 1 d 2 1 9 a 1 5 0 4 3 2 a 3 2 4 1 b c 9 0 2 4 a a a 4 a 2 3 2 0 b 0 2 1 0 9 e 9 1 0 0 0 a 2 3 4 4 2 0 0 1 1 b 9 5 2 1 0 0 9 0 4 1 3 0 a a 2 2 c 2 0 d d c 9 2 2 5 0 0 b 9 9 0 3 9 4 a a 0 c 6 3 b a c 4 4 1 0 d 0 a a 0 a 9 0 0 1 0 0 0 c a 2 9 2 9
2 4 2 a c 6 5 9 3 c 3 4 9 6 c a 0 5 b a 0 5 a a 0 4 0 0 1 c b 3 2 0 e 1 c d 4 5 a 0 c 1 4 9 1 0 c a 3 3 4 5 e 4 1 0 c 9 4 6 2 a e 4 4 4 9 3 1 9 0 4 0 9 0 b c 9 4 c d a 5 0 9 0 3 9 0 c d 0 9 0 a 9 6 a 6 5 0 3 d 3 4 3 0 4 b 4 0 b e 9 3 c 4 0 9 2 a 0 0 1 4 c
5 0 6 5 0 3 0 c c 6 0 a 3 b 1 2 9 6 9 0 0 a b 4 4 2 3 6 0 4 4 1 a a 6 a 6 a 4 b 1 6 5 1 2 b c b 3 4 2 e 1 6 0 4 1 5 a 0 1 b 6 1 4 4 1 d 9 c 3 0 1 0 1 5 4 0 5 6 6 b 4 2 6 3 0 2 a 6 2 0 2 0 0 3 4 3 3 0 1 b b 4 4 2 9 5 9 4 4 2 6 9 6 4 9 5 0 6 a 5 2 9 1 2 2 0
9 1 6 0 5 4 2 0 6 4 6 a 0 c 0 0 9 0 d 4 5 4 a a 5 1 4 4 1 6 6 1 b 2 1 9 d c b b b 4 b 4 3 9 4 2 4 9 5 a 1 5 2 4 a 4 4 4 5 4 0 0 e b c 0 9 3 3 c 0 9 2 9 0 0 b d 1 3 9 4 4 5 d 1 5 a d 4 3 c 0 2 9 0 0 5 b 0 0 6 6 0 b a 9 b 9 9 0 6 d a 0 1 9 1 1 0 1 e 1 c 0 5
c 0 0 6 c 4 0 1 1 3 4 4 1 1 c a b c d 1 0 a 0 4 1 6 5 c 6 a c 6 5 6 1 6 2 5 a 2 6 0 b 9 e 5 2 6 3 c d 6 9 0 0 b 4 5 9 6 0 1 a 6 4 4 1 6 a 6 9 4 0 6 e 6 d 6 4 a d e 0 a 5 4 6 0 6 9 5 6 6 a d a 0 0 b 9 6 6 b e e 5 2 3 6 1 4 5 c 3 d a 0 d 0 4 a 2 a 3 1 a 9 0
6 0 d 0 1 2 9 e c 2 6 b 9 5 9 d d c 2 0 d c 6 5 d 5 6 c d c 0 6 9 c c b 4 a e c 4 a 9 6 5 a 2 5 4 0 4 d d 6 6 9 5 a c 0 6 1 5 2 b 9 4 a 6 5 0 6 1 b 0 e e 0 0 4 c 4 e 6 e 1 5 3 e e a 6 6 3 6 0 c b b 0 6 9 0 b 5 e 4 e 6 e c a a 0 6 6 6 6 9 1 6 4 e 5 6 b 3 4
4 0 0 c 5 e c c 5 1 0 c a 9 2 2 4 9 2 4 1 4 d 3 b d 0 4 0 0 3 a 9 c 2 2 a 9 2 0 1 0 1 0 2 0 c 9 9 a 2 0 3 2 4 6 3 c c 9 3 2 4 2 a d a a 1 a 1 0 1 9 0 a 4 a 1 a 0 0 6 0 c 0 1 0 a 4 b c 2 2 0 5 0 2 d 0 a 9 a 0 1 9 0 0 a 1 9 c 1 b 4 4 9 4 5 4 4 0 0 0 2 1 2 5
4 9 9 a e c b b 0 2 5 2 0 3 0 d b 0 a a a 0 0 0 c 5 5 1 a a 0 3 b 2 9 9 1 0 0 0 9 2 0 0 a 0 4 0 d 9 0 e 2 2 b 9 4 1 0 5 0 0 9 0 a 4 b 6 9 2 0 1 4 1 1 0 b 0 9 0 5 2 0 0 c 0 b 0 b 1 4 e c 1 2 4 c b d 9 9 0 1 0 b c d 2 2 d 1 a 0 0 a 4 4 2 0 0 2 d b 3 3 2 1 0
1 e d c 1 2 a a 9 3 0 e 3 6 e 0 c 4 1 b a 3 6 e 6 1 5 e e d 1 e 2 6 e 0 6 0 c e 2 c 3 4 4 e 6 5 2 6 e a 6 a 0 1 6 b e 2 3 6 6 b e 6 3 6 5 2 d 6 4 0 c d 0 d b 4 b 4 e 9 a 0 5 a 1 d 6 6 6 4 4 d 6 5 5 d 6 5 3 d c e c b 3 0 3 6 a d c 2 3 d 6 d 9 d 9 4 6 0 0 e
9 0 9 9 4 2 0 0 e d d 9 2 0 3 d 4 2 2 0 0 b 6 0 c 2 c 6 1 0 3 d 9 3 6 2 5 a 0 d 1 9 4 b 5 0 5 0 a 6 1 9 c 3 c 1 3 a 0 d 4 1 3 b 1 0 0 5 9 0 d 3 5 e c d 0 c 0 6 6 6 6 c 9 c 0 0 9 0 5 d 6 c 5 0 4 0 0 0 3 2 1 4 b 3 a 0 c 0 0 a 2 9 6 4 6 5 3 b 0 a 0 2 b 4 0 0
9 0 d 4 a 0 1 2 e 0 e 9 0 1 c 1 4 0 2 0 b a 1 c d 4 a 1 4 5 a 2 a 1 6 0 2 4 5 4 4 6 9 1 4 0 9 2 a a 4 0 0 a 2 9 3 9 9 2 3 1 0 4 2 c b 9 0 0 1 a 9 3 0 9 5 4 3 1 2 4 5 a a b 0 0 1 4 0 1 c 4 b 0 1 2 a 4 0 a 1 0 b 5 3 9 3 c a 0 1 1 c 3 4 0 4 c b c 0 4 4 0 1 2
5 1 b 5 0 0 2 9 2 0 b 5 0 3 d d e 9 a 5 b 6 d 5 b c 9 9 6 b c 5 9 1 6 0 0 5 6 0 5 6 c 9 d 3 b d 3 9 b 6 b 4 0 e b 5 a 1 a a 1 a 1 6 6 4 a 1 9 4 b 3 c 1 a a 6 0 5 e 3 a 6 0 6 9 6 4 4 4 0 c d 3 a 0 e 2 e e e c c 5 1 5 5 1 6 9 0 4 6 0 b 5 0 5 d 0 c 0 9 0 9 2
0 0 3 0 4 1 4 5 0 c e a 0 0 0 b 4 5 4 5 1 d 6 6 2 b a 6 0 5 6 a d 0 6 0 2 0 4 b b 3 0 1 4 0 6 a 9 6 6 e 0 6 c c a 5 c b 5 0 0 a 5 0 2 a 0 3 0 a 2 1 c 9 0 e 5 5 1 5 2 3 5 9 0 4 1 5 0 a 6 0 6 6 0 5 9 6 2 0 9 6 5 3 1 3 a 4 5 3 1 0 6 6 5 6 1 d 4 a 5 a a 5 b 0
c 0 0 0 9 d c 5 4 0 c 9 0 2 c 6 3 9 e 0 9 2 b 0 3 b a a 4 2 c a 4 9 c c 4 0 2 0 1 a a 0 9 4 d a 5 c 4 2 2 2 5 6 a c a 2 9 1 0 0 0 d 5 1 b c a 0 3 2 e 4 0 b 1 1 2 a 4 0 c b 0 b 2 4 a 0 5 4 a 4 0 a c 2 3 0 0 a c 4 b a 5 1 c 3 9 0 a 3 b c 4 a 0 4 5 1 4 0 9 0
4 1 0 0 6 0 0 5 a b d 9 a 4 3 b 0 a 6 a 0 d 4 0 5 6 0 2 2 1 4 a a 6 2 9 6 0 a 2 0 b 9 4 6 3 6 1 0 6 4 e 3 3 c 2 5 9 a c 6 5 6 4 9 5 b 0 4 4 a 1 2 0 c 0 0 a 0 5 9 5 d b 1 b 2 0 3 2 3 6 6 d 5 0 4 1 2 9 6 6 0 3 2 0 0 3 0 9 9 4 a 1 4 1 4 3 6 0 1 b 1 c 4 9 b 1
0 9 9 c 0 0 0 9 1 c 9 0 b c 1 4 4 2 1 3 4 c a d 0 9 9 5 0 0 0 c 2 4 d c 4 2 9 3 1 2 9 0 9 0 3 1 0 3 4 2 1 9 9 4 9 b c a 0 5 5 4 d c c 3 0 0 0 9 0 b a c 4 0 a 1 c 0 0 a d 1 a 0 c 4 3 0 b c 4 4 1 d 3 0 0 2 2 1 2 9 1 3 9 5 3 0 0 a 1 a 3 b 0 3 2 0 4 9 2 0 1 a
d 4 b 0 c 3 6 a 0 c 3 5 a 5 4 b 0 0 2 e c 0 b d e 0 d 9 2 0 0 b 0 6 4 2 d 0 d 2 e c c d 6 3 5 c e 4 b 2 c 3 c c 0 2 1 0 c 3 e c e 5 e c b 5 0 9 9 0 c e 3 9 1 4 3 6 e 2 4 b e 5 4 1 9 0 e 2 9 c a d b 0 0 5 3 3 c c 9 0 e b a 0 e 4 d 1 b 9 2 c a 1 4 0 d 1 3 a
0 6 9 6 6 c 6 d d c d d 6 6 5 6 6 3 5 e e a 0 d 1 6 6 e e 6 a e 6 d 6 c 2 6 d 6 a b 6 6 0 5 0 6 c 6 6 6 6 e 6 b 6 6 6 4 0 b 2 6 6 a c 9 6 4 6 6 d c 6 e 6 d 4 6 d 6 5 5 c 6 b 6 e d 1 9 e 6 6 d 6 0 e e a e 6 d c e e c b 9 2 6 9 6 a c c 6 6 b 6 6 9 6 6 6 6 5
a 3 a 1 a 5 1 4 2 d a a 3 1 3 c 0 c c 1 4 3 0 5 9 4 a 2 1 3 4 c 9 0 0 5 1 2 3 4 d 9 0 a 6 9 b b 0 0 0 0 c 5 c a 9 2 0 1 4 b d d a 1 2 b b 2 b 1 b 0 0 d 9 a 4 4 6 0 2 e 5 9 c 3 b 1 c d 1 c 4 3 e d 3 2 c a 0 3 2 a 5 0 b 3 1 4 4 4 a a 3 1 0 0 1 b 2 0 e 9 9 0
b 1 9 1 b 9 9 2 0 9 1 5 1 1 0 9 a 3 c 2 c 9 9 4 2 3 2 1 2 a 2 2 2 9 4 a 0 a b a b 2 0 9 d 0 a 0 a 1 0 9 b 0 b d a 2 3 5 c 0 1 0 d 0 0 1 a b 0 3 c c a 9 c 9 5 5 9 0 4 0 0 0 b 9 4 4 3 0 d a 0 1 0 3 a c b a 0 c d c 0 3 1 0 2 3 2 0 9 a 9 5 a 1 0 9 9 3 9 0 0 a
0 0 6 c 1 0 a b 1 b 3 a 2 4 9 4 2 6 9 1 0 6 6 e 4 2 9 5 2 a 2 0 5 6 d 4 6 3 2 3 a 0 1 b 5 a 5 1 4 4 0 2 4 1 3 3 0 0 4 0 0 2 6 2 e 6 6 4 2 a b 5 4 9 1 3 4 e 2 6 0 d 5 0 3 1 5 9 0 0 5 6 1 c 0 b 6 4 3 9 3 6 0 a 0 0 5 3 1 2 2 5 0 0 b d 1 0 a 5 3 4 6 9 2 a 5 b
0 3 5 2 a 3 d 3 b c c c 1 a b 4 a 5 9 c 9 9 4 c 4 2 1 b b c 0 4 1 5 2 2 5 9 0 0 a e 0 0 5 0 4 2 d 4 0 d 5 4 1 d 5 4 0 4 a 4 4 9 c 5 b 6 0 c 2 5 5 d 0 9 0 4 0 6 9 a e 0 5 4 4 9 a 4 6 4 2 0 2 0 3 4 5 9 5 9 c 2 d 9 9 5 4 5 5 6 1 c 3 a b 3 9 c 9 3 9 a 5 2 1 a
4 2 d 2 1 6 1 2 b 3 0 3 a c 2 d 4 d 9 1 c c 0 5 9 4 2 4 2 0 2 0 1 b b c 0 a 3 3 4 9 9 0 9 2 b 0 1 d 4 0 c 0 6 5 9 c a a 5 0 0 2 4 0 a c 3 4 a 0 c 9 c 4 e d 9 0 d 4 5 2 c c 1 1 c 0 d d c 9 0 6 3 c c 4 1 0 4 1 4 3 1 9 0 c 1 b 2 1 3 0 0 4 1 3 0 e 0 c 0 a 0 6
a 1 1 4 2 5 2 1 0 a 1 2 0 0 2 1 1 9 e d 0 d 9 c 1 3 a a 4 1 9 a 9 5 b 9 0 4 5 9 9 0 0 1 4 1 0 9 0 c 9 1 a a 0 a b 4 a 0 c 4 1 5 c b d 9 a 0 c a 0 1 0 1 9 5 a b 1 0 9 c 4 1 4 2 4 4 4 2 5 0 d 0 4 0 3 0 3 0 0 2 d 5 4 3 4 0 0 2 9 3 0 0 e 9 3 c 9 c 1 1 1 a 0 d
2 b 3 2 0 c b 4 5 6 6 d 4 0 9 0 0 5 4 5 b 2 2 4 3 d 5 0 0 5 5 6 c 4 5 6 6 5 6 d 6 6 4 4 c 3 e 5 6 0 0 4 3 6 6 0 1 0 1 6 3 b 6 1 6 b 4 5 1 6 b 9 c 1 5 6 3 6 6 2 6 e 6 6 6 6 6 b 5 5 4 6 c 4 b 4 3 5 b 1 a 0 b 3 6 6 2 2 6 9 9 0 6 6 2 0 9 b 2 5 b 0 c 4 6 a 9 3
3 3 b 1 1 1 5 2 a 9 1 4 0 c a 0 3 5 a 9 a d c c 2 2 9 b 3 0 3 d c 4 d c 0 3 5 2 1 b 2 0 5 3 5 d 9 2 0 c 4 9 a 4 a 0 c 0 d b c 9 9 0 9 3 0 0 b a 3 9 e 2 6 d a 1 0 5 d a 4 1 9 0 9 4 9 a a 0 b 1 c 9 5 1 4 1 4 5 c 2 a 0 b 0 1 4 4 c c 0 c 3 5 0 0 c 4 2 1 3 4 4
2 0 4 4 5 d 3 4 6 1 1 3 9 b 2 a 1 e b e a e 9 b 2 0 0 3 4 0 9 b 2 4 4 3 9 6 d 4 1 4 0 0 c 4 9 0 6 c 9 5 e 3 1 2 e 0 0 b 4 4 d 4 5 e 0 b c 4 9 2 e a 0 0 a 6 0 c 4 9 5 0 9 0 9 6 4 0 a 1 3 c 2 4 c 1 d 4 9 0 3 c 1 c 9 d 5 5 2 6 0 4 b 9 c 1 c c 5 3 4 9 c c c 9
b 5 c 0 4 c 5 0 e 9 9 1 1 4 4 0 4 c 9 1 0 9 1 9 0 6 3 a 3 4 4 c a 6 9 c d b a 5 9 a 0 3 9 4 4 9 0 4 5 d 3 3 c 3 1 2 4 0 4 5 c 3 e 0 c 0 0 0 9 1 5 6 c 0 a 4 3 d 4 6 3 b 4 c 9 3 1 a 0 c 2 4 5 1 c c 5 9 0 5 5 4 1 0 1 b 3 6 0 2 0 4 c d b a 5 a 0 e 3 5 c a 5 3
2 5 a 1 b 1 0 d c e 0 5 4 9 b e b 9 e c 9 5 5 9 b 6 2 9 0 b d 6 1 5 5 b 0 0 e a d d 0 2 5 c 6 2 a 9 2 a b 9 2 e 5 3 1 a 5 5 2 6 4 4 1 6 4 5 0 2 6 c e d e 3 0 3 c 6 a 9 0 0 9 2 e d 5 6 1 3 3 0 0 9 c e 6 0 1 d d e a 9 2 b 2 9 c c 6 5 6 6 0 b 3 a 0 c 2 0 c 9
0 c 3 c 9 d 0 6 1 4 2 a 1 1 d 0 0 4 e b a a b d 3 1 0 2 1 4 c 1 9 6 b a 3 2 0 b 9 4 b b 4 0 5 4 2 0 d 9 b 1 a 3 1 2 1 2 c a 3 5 5 4 d 0 0 b 0 9 b 9 0 4 5 3 b 0 c 0 2 e 1 0 3 4 9 0 5 6 e a a b 0 0 0 0 4 2 0 2 0 0 c 1 4 9 2 6 0 b c d 2 d 2 a 0 0 4 c 3 a 9 d
a 9 4 a 0 c 2 0 0 9 0 3 1 3 2 1 3 0 e 1 0 0 a 9 c a c 2 0 4 9 0 0 1 0 1 3 3 4 0 9 2 1 a 0 b 0 9 0 1 b 0 b 4 0 1 c 4 d 0 c 4 c 2 0 d d e a 5 b 0 e 0 d 2 3 2 9 3 4 3 4 b 4 a 4 0 4 1 3 d 3 1 9 a 4 9 0 4 b 4 1 1 d 5 9 0 0 1 4 0 0 2 1 9 9 c 5 0 d d 9 4 a 0 3 a
0 a 5 0 4 b c 4 5 5 0 c b 0 2 4 1 c 2 4 9 b 1 3 0 9 5 3 0 2 0 2 0 6 c 2 4 3 4 b 4 6 0 3 9 c c 3 6 c 0 c 2 5 5 4 1 c 9 4 2 4 5 4 4 c 0 1 2 3 d 3 0 4 0 1 0 3 3 0 a d 0 2 0 4 6 c 6 2 a 5 a 2 0 5 3 2 c 3 6 2 b 4 5 6 6 9 5 d c 1 3 6 1 3 1 0 5 4 2 0 0 2 3 b 0 5
5 9 a b a 1 0 3 c 9 9 0 1 3 0 4 2 0 a 3 b a 0 e 0 a 2 c c d 0 3 1 9 d 1 5 9 c 9 3 c 2 0 a 2 4 1 a 4 c 0 0 0 0 3 3 1 1 2 b 4 6 0 c 4 b 4 2 9 0 4 2 3 b 3 4 e 0 1 c c 2 0 1 1 1 c 9 0 9 2 2 0 0 c 0 2 3 c 4 0 0 d d a 0 a 4 c 3 2 9 c 2 c 0 1 3 9 3 9 a b 6 0 0 a
d 5 c 9 2 4 a a 2 1 a 5 0 1 e c b b 0 d 4 a 3 6 a 5 0 0 0 3 5 4 0 2 a b 0 4 2 3 9 1 c 9 0 9 5 1 b 4 1 0 b c 0 c 2 4 0 c 4 4 a c 4 0 9 2 0 0 3 2 0 0 a b 3 9 1 3 5 4 d 0 4 a 0 0 1 0 2 a b 0 0 1 b b 4 4 0 c 3 2 c 0 9 9 0 5 4 0 1 3 0 5 2 4 0 b 2 0 1 0 0 2 1 4
c 4 d 4 0 6 3 0 6 2 c 6 3 b 5 d b 0 d b 3 1 e 0 e 9 3 0 2 c 2 5 c a 6 4 4 2 a 5 c 9 0 c d 4 4 0 c 2 2 e d 4 0 e b 6 9 0 d 2 e 4 3 e 5 0 a 0 b 3 4 c a 4 d 3 4 4 d 5 1 9 6 2 b 9 2 4 2 3 4 a 2 3 c 3 d 2 d 0 9 b 2 1 0 3 9 4 0 2 9 4 4 4 5 4 a 9 3 c 0 0 a 0 a 4
5 4 1 1 0 2 0 a c 0 a 1 b a 3 3 2 b d 5 c a c b d 0 1 0 5 a 1 5 4 1 5 3 a b 1 3 5 4 9 a 4 6 c c 0 0 2 4 9 4 2 0 0 9 b 1 d 0 0 b b 4 3 d a 3 d 0 a 0 0 2 a 0 a 0 1 1 0 c 3 9 4 3 4 9 a 4 6 0 a 0 0 2 9 5 2 0 0 b 2 6 0 0 0 c c 9 3 0 4 9 4 4 3 0 0 b a 9 0 1 1 5
c c 3 0 0 0 4 5 0 2 c 9 1 9 2 3 a b 3 c d c b 3 c 1 9 2 2 6 4 a d b 5 0 9 5 b 0 d 3 2 9 b b a a 1 9 9 2 0 c 0 e 1 4 d 4 3 d 2 a 1 0 c b 9 b 1 1 d 2 1 0 0 d 4 0 6 a 4 0 4 1 b 4 4 0 9 9 b a 0 a 4 6 d 9 d b a 4 c 1 d 1 0 0 5 3 1 0 4 c c 0 4 d 9 2 6 2 0 3 0 9
d 0 3 5 1 d a 9 d 0 c 9 4 c 9 2 1 6 e 2 a b b a 1 b 2 1 c 3 1 4 a 0 5 a 5 1 5 9 a 2 9 1 6 0 5 a b 0 0 d 3 0 c d 2 5 0 c 1 a 0 0 d 5 1 9 9 9 0 0 6 0 c c 5 c 6 4 0 c a c 6 5 1 0 9 1 2 4 2 b 9 3 4 5 0 9 2 c 0 1 c 0 d 5 d a 0 b 5 9 0 0 3 4 0 d d e 3 c 4 2 1 a
9 0 4 3 d 6 4 5 a 1 1 4 1 2 0 0 2 6 0 3 1 0 a 6 a c 1 5 5 5 5 0 c b 4 9 6 6 6 9 2 6 a a 9 a a c b 2 0 d 9 6 0 a 0 5 0 9 0 0 2 5 4 0 3 1 d d 3 9 5 c 0 6 2 1 0 3 4 2 5 9 6 1 1 6 0 3 0 2 0 c 9 4 5 5 0 3 9 c 0 6 1 2 b 5 9 6 5 a 6 0 6 4 6 9 a 4 b 0 6 b 2 1 9 0
5 d 2 d a c d 6 0 0 5 b a 1 c 5 b 5 e 1 0 d 0 0 2 0 9 5 9 3 5 e 2 c a 3 1 c 0 c 3 2 2 2 4 0 6 1 b 5 1 e 6 5 c 4 1 9 d b b b 3 d a 6 9 5 2 d 9 0 4 0 3 9 6 9 4 5 5 a 9 0 2 4 c 1 d 4 3 5 b a 0 c 5 0 4 d 4 4 9 5 0 c d 5 c 2 2 3 4 9 b d 3 c 1 b a 6 4 e 5 4 4 a
3 a 6 9 1 1 b 3 6 0 0 e 9 1 0 5 0 0 2 9 0 c 4 e 0 c 1 1 3 3 9 0 3 5 e 2 4 3 b 0 4 3 c 2 0 c 9 a 5 3 1 4 1 a 5 3 0 c 4 2 5 2 6 c 0 e e 3 2 4 3 9 9 5 c 2 4 b e d 0 0 4 d c a 3 1 0 c 9 1 3 c 1 2 4 d 5 9 6 4 3 0 1 4 0 d 4 c c 2 b 1 1 c c c 1 5 4 6 0 2 5 0 0 0
1 1 c 4 9 4 0 1 0 b e 4 2 1 3 0 5 4 0 b a b c 4 d b c 4 5 0 5 0 0 c 6 4 5 5 6 9 3 5 2 0 e 3 c 0 5 c 5 a a 5 3 1 a 4 b 4 5 9 c 0 4 e 5 e c d 2 9 9 c d 3 2 9 4 4 4 2 6 b 1 b 0 1 0 6 1 a 1 9 2 5 0 5 e 6 9 c a 4 c 5 0 4 4 0 5 0 2 1 2 1 3 0 2 0 d d 6 9 2 0 0 5
a 0 9 b 3 c a 4 4 6 1 1 d 1 4 2 5 a 6 6 5 0 1 0 2 4 0 4 4 1 9 3 0 1 0 6 d 0 0 4 5 6 b 0 0 3 b 3 5 a 1 4 9 b 2 3 d b 9 9 0 1 d 9 b c a c 0 4 9 a 9 b c 4 0 9 0 e 9 9 5 b 1 4 0 2 5 b c c 3 9 0 4 0 2 1 5 0 b 1 3 9 5 3 b 5 2 c c 3 5 c 9 e c 3 2 1 4 b d a a 2 4
0 0 2 0 2 b 2 9 1 9 c 4 0 0 4 d c 0 b e a c e b c 3 0 3 5 1 3 2 0 2 2 0 2 5 4 a 2 0 9 b c 6 9 1 6 0 b c c 2 3 0 c 9 c 0 9 c c 4 5 a 6 e 9 2 a 5 a 4 d 3 b 9 3 b d 0 6 3 e c 1 1 a b b e 6 0 4 0 c d 1 4 e 0 0 0 0 2 4 1 2 0 0 2 b 5 3 2 3 5 1 a 1 3 c a b 9 d 6
4 c 4 d 5 5 9 6 a 4 a c 0 a 0 4 0 1 1 4 0 0 9 0 0 3 3 4 0 2 a c 2 9 e d 9 a c 3 0 a 1 1 0 1 c 5 6 0 3 c 4 e 3 5 0 b 2 c 0 3 0 4 3 d 1 b 3 2 4 0 0 5 5 0 1 4 d c e b 4 0 d 9 0 3 b 0 3 0 4 1 9 5 a 4 0 1 3 0 4 2 3 a 0 0 3 0 c 0 2 6 9 c c a 1 0 0 9 2 b 4 b 3 5
6 1 4 a 4 2 1 a b 6 2 1 0 4 0 a 0 a 6 4 a d 5 6 4 0 6 a 0 2 3 4 b c 9 9 4 0 a 9 3 6 9 4 0 1 d 4 6 b 3 0 b 6 6 3 3 c c 5 5 b 6 9 1 c 4 2 5 4 1 3 9 4 b 5 0 4 c 0 6 c 0 4 b 5 2 b 6 c d 0 b 0 1 3 9 a 0 6 4 e a 4 6 3 6 a 4 d a 1 0 5 b 4 5 5 c 4 0 c b 4 3 0 3 3
a 0 2 c 5 5 2 3 5 1 c a 9 5 5 1 4 5 2 a 6 1 0 d 1 1 0 5 2 1 3 d 1 4 0 5 4 4 5 4 9 4 0 0 0 1 3 c 4 4 5 4 0 0 9 6 0 0 4 0 4 6 0 b d 6 2 0 9 9 9 0 1 b 0 b 3 b 1 4 0 a 6 5 3 9 1 4 b a 0 0 4 0 a 2 0 2 6 6 0 4 0 5 6 0 3 0 4 6 c 0 9 2 d e 4 0 2 2 2 4 3 c 0 0 2 a
d a a 4 9 9 b 0 a 4 a a 3 c a 0 0 3 4 c a 1 b 1 9 c 4 0 2 2 1 1 b 9 6 3 2 4 1 0 4 5 3 2 9 0 d 4 5 0 b a 0 0 5 2 1 a 3 4 d d 2 9 5 d 0 0 0 9 9 3 c c b 6 9 6 2 0 d b 5 d 5 4 4 a 2 3 5 2 4 0 9 0 3 3 0 a 1 0 b d b b 1 3 2 5 3 0 5 0 a a c b a c 0 b c 0 2 0 c 9
5 3 0 0 6 3 4 0 4 0 9 5 a 5 5 0 2 c 4 e 1 e 3 2 3 5 3 3 3 0 9 1 2 5 c 9 b 2 d 5 d e e a 0 a 4 5 6 2 a 3 b b 0 4 1 d 0 b 5 6 3 0 e a 3 6 0 9 0 5 b 6 a e 2 1 d 0 e 5 4 0 b c 0 4 0 d 1 4 9 2 2 2 0 e 3 4 3 5 4 e 0 d b d 3 6 c 6 c 4 d d 0 0 1 1 6 2 4 3 a d 1 4
4 1 a 4 e 3 4 1 4 5 6 1 a 4 5 a a 3 d 5 c 9 9 0 b 0 9 9 1 c b 4 d b 5 2 b e 5 9 4 2 2 0 4 a b 9 9 a 4 c 3 6 0 3 0 0 c 3 2 1 9 b c 2 1 d 0 3 0 a 4 d 2 6 9 9 5 a 0 9 c d 4 a 3 a 4 2 c e e 0 0 4 1 0 3 5 5 c a 6 9 2 0 0 c e d b 0 0 4 5 4 0 9 9 9 9 a 5 0 b 0 9
3 2 5 2 a 3 0 1 2 0 0 c 4 9 9 2 d 4 0 c c 4 a 3 5 4 6 1 c e 1 1 c 1 e 2 6 9 c a c 9 2 0 c d 4 3 9 4 d 0 2 2 9 a 2 4 1 5 3 9 5 c a 3 6 6 0 2 9 4 b a e a 0 1 4 2 3 b e 0 4 3 3 9 a 0 6 5 c 1 4 d 6 4 0 9 0 3 b 3 d e c 4 9 5 0 4 1 9 1 a c c 1 d 4 6 9 0 3 0 2 0
a 3 2 5 e 9 9 1 d 3 6 0 3 2 c a e 6 d 9 e 6 e b 2 b 4 e e 4 5 6 c 0 4 4 c 1 b b b c 9 1 6 9 5 4 e 0 e c 2 6 e e 6 6 1 4 e e b e e 6 c 5 0 6 0 0 6 5 4 0 1 0 6 1 6 6 e 5 6 6 0 4 6 2 5 6 9 2 0 e c 9 0 e 4 d c 0 0 d e 4 b 0 6 5 6 a 2 e 9 9 3 5 e 3 0 4 1 6 3 d
4 3 5 c 2 c a 5 6 9 c 9 9 1 1 5 4 4 4 b 3 5 5 b 4 a 0 5 2 2 9 c 6 1 b 4 6 3 4 0 1 a b 0 3 a c 9 6 1 2 4 1 d 4 4 1 2 5 2 b 6 5 0 e 6 6 9 a c 9 4 2 9 e 4 6 d 1 6 9 c 6 b 4 c 4 0 2 0 3 4 1 a c 0 6 b 6 6 0 5 3 2 9 5 6 4 6 2 c 5 b c c c 1 b 3 6 2 3 4 a 4 b 4 1
1 a 4 2 2 3 1 0 9 3 1 c 2 e 0 9 2 0 e d a 0 1 9 0 4 4 0 1 0 6 4 0 6 0 2 5 3 0 a 3 1 9 3 0 1 0 4 2 c 9 a 2 0 0 e 0 4 9 0 b 2 2 5 6 b c c 0 b c b 5 5 4 1 9 b d 3 e 3 0 d 5 4 3 a b 5 4 4 a b 4 1 2 4 b e 9 a 2 0 c 0 d 9 4 3 1 2 2 0 9 2 1 b 0 d 0 e 9 0 9 a c 0
a 2 b 1 d e 0 a 1 0 9 b 3 1 0 0 0 a 0 b 3 2 b 4 a 4 c 4 3 1 a c 3 9 3 0 3 3 0 0 0 4 2 9 a 0 c a 9 3 0 6 1 0 0 a a 4 9 2 c 3 a 4 c 3 0 c b 2 3 0 d 0 b 2 5 0 0 0 a 0 4 b c a 1 2 2 3 2 b 1 a a 0 4 a 5 0 0 4 a a d 1 5 3 0 4 9 2 4 2 c c 1 b 9 3 0 0 4 1 3 2 1 0
c 4 c 4 2 2 4 9 6 0 a 6 4 5 2 0 3 1 6 d 9 d 4 0 a 0 4 0 b d 0 3 0 9 b 5 0 5 d 6 c d 0 a 9 1 3 a b 4 a 6 c 0 c 2 0 3 9 a 4 5 4 b c 4 2 6 3 5 4 6 c 0 c e 0 e 9 6 0 1 a a 0 0 0 5 0 d 5 4 9 0 0 1 b 0 4 c 4 3 1 c 9 e 4 2 0 5 3 5 a d 4 0 a 9 b b 6 4 3 2 b 0 3 c
3 a 2 a 3 9 3 1 0 1 b 2 0 9 4 0 1 2 0 c 4 3 3 e 0 2 1 1 3 a 2 b 2 3 c 5 1 9 2 4 0 1 a b c 2 1 b 4 2 4 9 0 9 a 6 9 9 4 3 4 4 4 4 1 1 0 1 0 2 c a c a b 5 0 b 1 b d c 4 4 9 3 2 a 1 0 0 0 a b c 2 2 1 2 4 2 1 b c 9 9 4 a 2 3 c 0 9 0 b b 9 2 a 0 9 9 4 a 2 a a 4
9 5 d 2 4 9 2 d b c 0 0 0 9 9 a 0 0 0 1 0 c 4 c e c 0 0 a e c b 3 a 0 3 4 1 0 b c d 0 b b 1 d b 0 2 9 5 d 0 9 3 b 4 c c d 1 a 9 0 a 6 a 9 2 c 4 d c 4 d b d 0 6 4 3 4 2 d c 0 9 a 0 9 0 6 b 4 b 4 d d 0 e d 9 b a d 1 1 3 6 5 0 0 0 5 b 5 2 e b 1 5 4 0 0 3 a 0
a c 5 a a a 9 6 2 1 d a 2 4 0 3 0 4 1 9 b c e a 1 c 9 0 b 5 0 0 1 a e 1 5 4 5 b 0 3 0 9 4 a a 9 b 2 b 9 3 9 b 5 3 2 0 1 2 5 6 0 d 0 d 0 a b 1 1 b a d 1 6 d 4 a a c 5 d 4 3 0 4 9 3 2 3 3 1 d 9 0 0 5 3 0 4 2 4 b 4 4 4 4 0 1 9 0 0 0 c 0 c a 4 b a 5 d 5 1 2 1
c 1 0 0 0 6 0 1 0 0 1 5 9 0 9 2 0 3 e b 1 4 1 4 b 4 3 9 3 9 1 5 3 0 3 4 c 9 4 4 5 a 9 2 c 9 c b 0 0 c 6 2 1 2 a 2 0 0 4 b 5 1 4 d 6 2 2 a 6 9 0 9 4 b 4 9 0 3 b 1 e 9 9 4 4 5 a 5 c 1 4 0 1 9 c 1 c 2 2 a 0 9 2 9 4 4 0 3 1 c 0 c 0 0 e d b 0 b 0 6 0 b 0 1 0 b
4 c 5 2 2 5 3 4 5 1 4 9 a c 1 4 1 0 d c 0 d 4 e 4 a 0 9 c a 1 2 9 9 d 4 9 9 b 1 0 1 0 3 1 1 0 4 0 b 3 0 9 2 a 0 1 9 c c a 3 3 9 d 0 0 2 1 0 0 0 a a 3 4 4 c a 9 4 c a c 4 0 3 3 3 1 3 2 1 b b b 9 2 3 5 5 3 0 4 2 b 0 9 0 c 3 0 9 b 1 0 1 2 0 b 0 2 4 9 4 0 2 b
2 a d 0 4 3 9 d d 4 4 c c 9 5 9 1 e 4 4 4 d 1 2 b 6 0 c 0 c d 4 2 0 2 1 9 2 0 0 1 4 a 4 d 0 e 1 4 c 3 a 1 3 6 6 0 e c 0 5 3 2 4 4 d 0 b 3 1 0 1 c a 4 3 a c d e e 0 4 0 e 9 0 0 c e e c 1 0 1 5 d a 4 6 b a 2 a 3 c 6 d 4 0 e c 0 4 5 2 4 1 5 1 6 d c 2 1 c 2 6
0 4 0 1 2 4 4 5 0 a c 1 0 2 4 c 5 3 2 0 6 6 6 c a 2 a 6 2 5 5 a c 3 c 2 b c 0 1 c 0 a a 6 4 6 b 0 5 3 d 3 9 c 5 2 1 0 c 3 5 9 b d 5 2 c 9 5 9 2 6 0 0 e 6 b b 9 6 6 1 3 0 e d 3 a 2 4 0 6 9 4 0 0 d 4 2 2 6 1 6 0 0 3 a c 0 a 0 a 3 b a 1 6 4 e 6 0 5 9 c a 4 1
6 a 0 0 9 0 9 c b 9 b a 1 2 2 4 9 4 2 4 c 0 3 1 9 1 a 4 2 2 9 b 0 3 1 d 3 4 4 1 2 3 a 1 c 9 0 d 3 2 2 4 9 2 0 a 0 1 c c 0 1 4 0 d 4 2 4 a 0 3 2 0 a d 2 2 3 2 1 5 a 4 c 4 b 2 4 a 0 3 b e b 9 9 5 d 4 c 0 b 9 2 0 1 2 0 0 3 4 4 9 0 0 b 2 0 2 4 0 d 0 9 1 2 b 2
5 4 0 c 4 d 9 d a 1 5 3 0 6 1 c 0 2 c 4 0 6 4 0 a 3 5 0 1 c a 5 0 e d 6 c c 0 3 4 1 b 9 d c d c 0 0 1 3 d 6 4 6 0 2 a 4 1 3 5 c b 3 6 c 2 0 0 6 e 0 9 b b 1 5 0 5 d 1 4 d a 6 a b e c 5 4 0 0 d a a 9 a 0 0 d 2 5 d 6 0 4 5 d 9 b 3 9 3 1 0 9 4 9 4 e 5 2 9 4 5
5 b 6 0 9 a a 0 1 5 1 0 4 3 0 2 0 6 d 6 2 6 6 a 6 0 0 5 0 0 6 1 1 0 6 a 6 1 6 a 5 6 3 2 0 0 4 9 4 4 a d 5 5 2 5 1 3 c 4 0 0 6 a 2 3 0 2 1 9 c 0 6 9 6 4 5 4 4 6 6 1 0 3 4 3 6 9 3 3 6 3 4 3 9 3 6 6 6 0 4 0 b 4 4 3 4 5 0 0 0 9 4 c 6 1 5 0 c 6 b b 3 5 6 4 2 c
0 2 b 0 a 5 9 3 c 3 b 1 1 1 2 0 2 0 9 1 b 9 d 9 d 0 a 2 4 1 a 9 a a 2 0 4 3 5 0 1 4 9 a 0 a d c c a 0 b a b 4 5 1 0 1 0 b 0 c 4 9 0 0 b a 1 2 9 0 1 2 3 1 a 3 0 1 b 3 3 5 1 2 3 2 3 b 0 d 2 2 1 4 a 3 4 4 1 a 2 0 a 3 3 4 0 1 1 0 0 4 a 2 1 4 3 0 e 0 2 1 2 0 5
4 c d 0 3 a 9 d 0 0 4 c 1 0 3 c 0 d 0 a 3 5 1 5 c 0 5 3 3 2 9 1 0 3 c 0 5 0 b a 3 5 9 1 c c d 0 6 3 3 9 a b 5 5 9 9 0 1 0 3 4 5 4 c 2 c 1 0 0 4 a 0 4 1 d c 3 0 9 a 5 5 9 4 1 0 0 b 9 1 1 4 4 4 0 4 e 1 b c 1 b 5 e 3 b 1 9 0 a 0 6 4 0 5 1 3 1 5 b 2 4 3 c 9 5
a 1 9 1 6 9 1 0 a 1 9 1 9 4 5 c 4 d 4 a 2 e 5 c 1 4 0 9 4 1 1 1 9 6 c 3 9 b 0 a 5 5 d 1 1 3 2 0 1 c 0 0 c 3 4 5 9 b b 1 4 4 c d b b 3 4 1 6 0 9 0 3 e 4 b 4 a e 2 3 5 1 c 9 0 a 2 9 9 c 1 d 4 3 9 9 0 5 6 5 0 4 6 2 5 e 3 b d c c 6 1 c 3 1 4 b 4 0 b c 3 b 0 4
9 2 9 b 0 c a 2 3 b d a 0 1 1 0 0 9 d 2 4 0 4 e 0 0 2 0 4 4 0 1 0 5 b c c c 9 9 2 4 0 2 3 5 2 0 2 0 4 d 9 4 0 1 0 0 a 0 3 c 9 5 c 3 a 9 b 2 c 3 2 c 0 9 c c 9 2 4 5 c c a c 2 2 a 4 c a 9 c 4 4 c 0 c b 9 4 1 9 0 2 5 1 9 d 1 0 2 0 4 0 3 2 1 4 3 0 0 2 0 0 3 2
c 6 d 6 e 5 5 4 9 0 a 6 1 2 2 0 a a 5 0 2 6 d 5 2 4 b d 6 b a 6 4 6 6 6 c 3 4 3 1 a 1 c 9 3 0 0 c 0 c 6 9 4 e e 3 6 9 6 e c e d 0 6 9 6 c 1 a 0 6 3 b 2 2 2 6 a 5 5 e b 5 6 4 0 6 2 2 6 0 0 c d 9 b 6 3 0 0 c c d 5 4 6 2 3 6 a 3 a 4 b c c b 2 d c 1 3 e 0 c a
1 6 0 5 6 c 6 e a 5 0 4 5 6 6 6 6 e 6 c 2 b 1 6 c 6 6 9 e 6 9 e 5 9 9 a c 6 e 6 a 9 6 6 a 6 c 6 3 6 6 6 4 c 6 0 6 6 6 6 4 d 0 4 4 d 4 e 6 6 6 6 c 5 6 e 1 e 3 4 6 6 6 6 e 3 c 5 c e d d 0 6 6 3 e c e 0 b e 6 1 0 e 0 e 9 a e 6 9 6 c a c 6 6 1 6 6 a 6 3 5 6 6
4 4 9 0 5 c 3 4 4 b d 2 b 4 4 6 3 5 6 9 b b b d a a 0 2 5 c a 9 1 6 c a 0 3 4 5 2 9 9 a e 2 e c 5 4 0 0 2 1 0 6 a a 3 0 c 5 5 4 c 0 0 1 0 0 a 0 9 0 d 5 6 9 c 3 e c 6 c 1 0 1 9 b a 3 0 e 0 c 1 3 0 6 a 4 1 9 0 d 9 a 9 0 5 c 5 c b 9 0 a 0 c 2 6 6 5 a 0 9 1 3
a 1 c 3 9 4 c 0 b 2 c 0 3 0 b 2 b 4 4 4 2 0 1 4 d b 1 3 2 0 1 b 0 0 2 0 0 2 5 0 2 4 3 2 b c c 9 2 9 1 c 0 2 3 0 1 0 c a 0 9 0 3 6 c 2 3 0 3 2 9 9 1 b c 5 9 5 0 1 0 0 0 9 b 1 a 1 2 1 b 4 1 0 2 4 9 c 3 9 d 9 9 1 b 3 2 b c c c 9 0 3 1 4 9 b 1 0 c a a 2 9 0 5
0 3 1 5 9 1 4 a 3 4 4 6 0 1 9 0 c 4 9 2 a 6 a e 3 2 0 5 0 0 4 6 0 4 3 3 1 4 5 4 1 0 0 c e 0 c d d a c 5 2 5 c 3 a 5 0 5 d 1 9 b c 2 a d d 2 9 a b b d 4 3 6 6 3 3 d a 0 6 0 4 d 4 3 4 0 1 0 c a 9 2 1 5 d d b 4 a 0 3 6 9 a 3 e 3 c 3 0 a c d 5 e 6 c c d 1 3 b
4 0 5 9 1 4 0 0 b 0 6 0 9 b 2 3 c c a 2 0 a 4 2 2 1 1 4 a 4 3 0 b 3 d b 5 0 0 1 2 4 0 3 0 9 1 a 4 0 4 a a 6 3 a 0 1 9 0 4 0 4 9 0 4 4 0 3 0 1 9 c 2 b a d 4 0 a 3 0 0 4 9 0 0 a 5 0 9 0 9 0 1 0 a 3 1 4 a 9 9 0 2 0 1 1 3 9 a 9 4 1 9 d 5 0 9 5 0 3 2 d 0 0 a 0
1 a a 0 0 c 2 c 0 9 0 0 9 5 4 b 1 e b 0 b a 0 4 2 a 1 2 0 0 9 0 c 4 2 d a 0 c 9 2 c 0 b 1 0 0 a a 4 c 9 b 0 9 c 9 1 c b 5 2 0 3 0 3 3 5 0 4 c 4 c 0 0 2 d 4 0 0 5 4 0 0 d d 9 1 c c 0 0 4 c 5 9 a d d 9 4 b 3 2 c 2 4 a 4 0 4 0 c 2 5 1 5 4 c 6 5 1 c 3 3 9 1 4
0 2 c 9 1 d 6 2 d b c 6 9 9 b 4 4 5 d 5 4 0 c e a 0 0 0 4 3 9 0 c 3 c e a 0 4 4 a 1 1 9 6 5 3 1 e 2 3 b 4 0 b 3 0 a c a d 4 3 0 a 3 d c 0 a 0 2 4 4 a 5 2 1 3 a 4 5 1 c 1 a 4 a c 5 5 0 2 0 a 2 0 0 4 0 2 6 4 a 0 6 a 4 0 b a 9 9 2 b 9 b 4 0 a 1 e 3 2 0 2 1 2
3 1 5 c 4 2 1 3 0 5 2 2 c 0 0 0 0 4 a 4 1 0 5 d 5 b 5 4 9 1 5 0 c 3 b a 2 a 2 c 4 5 0 2 0 1 1 9 5 4 2 b 0 4 5 3 0 d b 4 6 2 4 2 4 c 2 9 3 5 b b c c 9 5 c a 4 b 2 a b 4 2 5 1 0 5 a 0 0 a c 2 1 d 5 0 6 a c 0 1 2 3 5 a 1 3 b c 4 1 2 1 2 9 1 2 2 0 2 d 1 1 9 4
0 1 0 2 4 2 3 c d 2 0 9 9 0 b c 9 d 0 c 0 0 4 3 0 c 2 b 0 2 2 9 0 c 1 3 b b 1 b c 1 0 1 0 a 3 4 0 1 2 c 0 2 4 9 3 b 3 0 3 1 1 a 1 0 0 0 0 1 a 3 c c 9 0 a 0 a a 4 3 b 9 a 1 b 2 b b 0 4 a 0 1 a 0 b a 4 2 0 0 1 2 9 2 0 b 0 9 4 0 1 9 0 2 0 d 4 4 c 0 3 3 0 0 c
b 4 c 5 c 5 9 5 0 4 0 5 2 1 0 4 3 4 e 3 4 3 c 3 a 4 0 0 6 b 0 6 4 5 b 6 9 3 6 5 0 2 0 a c 0 e c 2 a 0 4 2 1 c 3 9 5 0 6 c a c b d 5 6 3 b 5 0 b 0 9 d 6 0 9 3 3 2 e d 0 3 5 4 a 6 0 9 5 3 a 0 1 9 9 4 5 1 a b 0 b 0 6 3 5 0 4 4 4 5 0 c a 9 1 3 c 1 0 c b 1 3 c
3 1 0 2 5 5 0 3 b 9 9 2 0 3 9 c c 2 e 4 c 5 5 a 4 0 1 b 0 9 b 1 3 6 6 0 1 b 0 b a a 9 3 6 9 6 0 1 5 c 0 9 0 b 4 0 c a 0 3 a 6 5 2 3 9 4 3 3 0 4 1 b b 3 9 5 2 2 b 0 0 0 0 a 4 0 9 c 2 4 5 c 0 3 2 c b a 6 0 0 9 c 5 c 2 4 e c 0 1 c 9 0 6 5 2 c b c 1 9 4 0 a 1
4 4 4 4 a e 9 1 2 0 4 3 4 2 0 6 5 5 e 5 3 6 a d 0 d c 6 2 5 0 0 0 b 4 0 3 4 5 c 3 5 2 1 4 3 c c a 4 1 a 0 0 9 5 4 4 b 0 0 d 6 c 0 6 4 d 9 b 2 1 0 d 4 0 6 1 6 5 6 9 5 0 6 1 5 2 0 5 5 4 4 0 a 3 4 0 5 a 2 c a 3 2 9 a 4 9 4 4 3 5 9 0 c 9 1 3 4 d 5 5 b 1 4 1 9
3 0 d 1 3 2 1 2 d c a 4 0 1 b 3 4 4 0 5 b a 9 c 1 4 1 b 5 5 c 0 b 4 5 e c 3 4 0 a c 3 1 a 4 4 0 d c 3 0 9 9 a d 9 4 d a c 0 b c b c d 2 3 2 3 0 d a 0 4 4 c 2 1 0 4 c e 2 a 2 0 2 a 3 d e 0 0 1 0 d b a a 1 9 5 e 2 0 4 0 a 2 9 c 1 0 3 5 0 4 1 a e c 0 a 2 2 4
4 0 5 0 1 0 9 a 9 1 a 4 9 0 0 c 2 a 4 0 0 a a c 0 a 1 4 a 4 a 9 b a c 9 a d 0 b 9 b 9 4 6 0 9 4 2 9 4 c 2 0 0 b 0 0 1 a 5 3 0 9 b 5 c 3 1 4 b 1 3 3 3 3 0 b 9 1 5 0 2 0 b 0 0 0 a 9 b a a b 2 3 a 2 c d 1 2 9 5 3 0 0 0 b 2 9 2 4 1 4 9 b 4 5 4 4 a 9 d 4 0 3 5
6 a 5 e 2 1 d 0 a 0 4 c c 6 1 b a 4 4 6 d a 6 c 0 9 6 b e d 3 0 9 c e 4 0 e c e 5 0 b 2 0 a 2 1 0 9 9 2 a 4 3 6 5 a c 4 5 3 6 c b 4 5 2 3 9 9 5 2 c 5 c 9 9 1 d 6 a e 4 9 5 6 a 3 d 0 6 4 3 6 1 a b 0 3 5 3 a 6 4 0 4 b 4 d d b 5 1 0 e 6 5 0 6 9 0 b 0 6 0 4 9
c 0 c 4 4 c 0 b c e c 9 1 b 0 0 0 3 6 e 3 0 1 4 e 0 0 5 9 e b 1 4 5 6 3 6 6 5 2 a c 0 c c a 9 1 a 6 1 2 a b 4 a 0 6 0 0 c 4 3 a 0 6 6 6 b e 1 5 1 e 0 5 3 0 3 6 a 2 1 e 2 c 6 0 d 5 6 0 6 0 1 0 6 2 c b e 0 a e e d 4 6 4 6 4 3 9 d 6 9 0 4 e 0 2 0 6 2 2 0 9 b
5 a 1 c 9 6 4 3 e 5 5 0 c 4 4 9 4 2 e 6 5 9 0 6 1 2 1 2 0 a 0 d 9 d c 3 d e 4 2 3 4 2 0 9 c d d a 9 6 4 4 3 3 6 0 e 1 1 6 a c d e 2 0 2 c 0 2 c b a 6 c 2 e 0 9 2 d 0 0 0 9 0 1 a b d c 5 b 0 6 d 0 5 5 b a 4 6 6 4 6 c e d d c 6 9 2 1 5 0 2 4 0 2 e 9 d 2 4 6
a 3 a a 9 b a 5 4 0 a 0 0 3 a 4 1 9 5 3 2 1 2 2 2 9 0 1 4 0 c 1 3 5 d 2 0 1 6 5 4 1 c 0 0 9 c b 5 b a 4 1 a 3 5 c 1 4 4 0 6 5 0 2 0 6 6 0 2 a 0 1 2 c 6 5 6 1 3 0 b 6 c 0 1 4 1 5 2 1 2 2 d c b 4 2 5 2 1 6 9 c b 1 5 a 6 5 0 2 a 4 d 9 d 9 b 3 1 6 a b 4 b 1 a
e a d 0 6 a c 4 a a b d 9 0 6 1 5 d 6 9 6 0 4 c e 9 0 6 4 c 2 1 5 5 c 6 0 4 9 c d 3 a c b b 3 a 6 4 4 6 d 0 9 6 0 d 2 a 5 3 4 a e d 4 a a 1 0 0 0 0 9 5 a 0 e 2 c 3 4 5 c c 1 0 9 2 1 c b b 0 1 4 0 d 6 2 6 b c 6 c 5 c 2 6 0 a a 5 a 0 0 3 1 d 6 1 1 0 9 b 1 2
5 2 0 d 1 4 0 b 0 4 5 9 a 5 0 1 2 2 6 6 0 2 0 9 0 3 1 c 2 9 d 5 0 d 9 1 d 0 0 5 4 0 0 4 5 9 a 0 4 c 0 3 4 5 4 4 2 0 c 1 0 4 a 9 a 9 a c 0 5 9 1 c 0 1 2 0 5 0 c 6 a e 4 9 a 2 0 0 d b 1 6 9 0 4 2 c 5 3 4 0 1 5 2 3 6 9 4 d d b 1 5 1 d e 3 3 6 9 a e 5 1 0 4 1
a 0 0 9 4 4 1 6 1 1 d 0 9 2 0 3 4 6 e 6 3 0 5 a 3 5 a 4 6 2 4 c 0 1 0 a a c 4 1 1 4 0 9 6 5 4 a c c 5 e 5 b a 5 1 b 0 1 5 3 2 d b 0 0 a a 9 9 0 6 3 0 9 6 1 c d 6 5 2 b 9 c 1 9 4 4 a a c 0 1 6 2 0 2 6 3 6 0 3 5 5 4 2 3 0 9 b 3 1 a c 0 2 6 2 1 2 3 b 0 1 2 6
9 2 c 2 0 2 1 d c d e c 2 3 0 0 0 0 5 0 a d a 1 0 9 2 0 4 5 0 c 1 a 5 c 4 4 4 c 3 0 2 0 a 2 2 0 6 3 4 e 1 2 3 0 4 a a c 5 b 5 5 3 a 0 3 2 0 9 1 2 1 c b d 9 0 4 5 1 6 3 9 c 4 3 c 1 0 a 0 0 9 4 4 3 0 9 a c b 3 2 5 2 0 4 1 9 9 4 4 6 a 3 5 9 a 1 e 4 3 4 9 9 5
5 0 9 c 0 c 4 1 2 c 3 4 0 3 5 c 2 a 4 3 a a 0 d c 0 2 0 2 2 0 a 0 2 1 c c 0 b 0 9 0 2 9 4 1 4 b a 4 9 0 0 3 9 4 1 0 0 9 0 9 4 0 c 4 0 9 0 2 c 1 4 b 2 9 2 d b 3 5 0 5 9 d d 1 a d 1 b a e b 1 3 b d 4 0 1 1 0 a 0 0 b 2 9 a 0 a 0 0 9 b 5 4 9 1 4 1 0 1 2 3 4 4
a 0 9 3 c b 0 4 d 0 0 2 b 0 a 5 4 5 d 9 3 3 e 2 0 4 0 c 5 1 9 d 0 3 1 5 a 0 5 2 0 9 0 0 3 c d 0 0 0 2 2 3 9 b 5 c b 2 5 0 4 3 9 3 3 3 d c 0 1 b 1 1 c c 6 d 3 a d d 6 2 6 9 a 2 1 5 1 0 d 0 b c 0 0 4 1 4 0 3 3 9 3 0 3 9 3 a 1 c 4 a a d b 0 0 1 0 9 a b 9 1 3
0 a 2 0 a 0 9 c d 3 0 c 2 0 2 1 b a e d a 0 4 5 4 1 9 c 3 a 4 6 9 0 0 2 2 0 3 d 0 2 0 0 5 9 0 a 1 b 3 2 c 9 a 0 0 0 3 9 0 0 3 4 2 4 a 9 0 3 0 0 a 1 2 3 c a a 4 6 4 4 0 9 1 c a 3 4 a 4 3 a 3 3 c 3 d a 0 0 9 4 4 2 c 3 9 b 3 2 0 a 2 c 9 0 0 0 1 3 c 9 3 0 a c
0 9 4 0 4 2 0 0 d 5 4 9 a 0 1 b 0 c 5 5 5 b 5 a 1 9 4 1 1 2 6 5 a 4 0 c 0 0 0 b 5 6 b 4 3 a 4 3 2 3 a c c 5 4 5 9 c 0 0 5 c 1 0 3 e 5 0 3 6 2 a b 1 a a d 4 9 d 3 1 0 6 4 2 5 d 2 0 a 5 a 0 5 5 b 5 a 5 0 1 b 5 3 0 2 0 5 e 9 a 3 4 0 b 6 3 a 0 a 9 c a 2 0 1 0
0 9 1 c 6 b b 6 1 e e 9 a b 4 9 6 0 d a 5 b a 9 c 5 9 0 6 0 c 9 4 2 0 b a 9 4 5 0 9 0 0 5 4 4 4 1 9 1 b 1 d 1 5 2 c 1 e 2 5 3 2 0 2 d 0 2 c 4 0 5 2 a 4 3 3 c 1 e b 5 e c e 9 b d 1 0 1 5 0 c 9 3 3 6 4 1 5 0 a 0 2 4 9 1 d c 1 d 9 1 4 a 1 0 3 0 2 9 c 4 9 9 1
6 0 d 5 9 3 1 e 0 c e 4 5 0 c c c a 6 e d e 4 5 5 1 6 b 0 c 9 1 0 6 c a 6 0 d 1 2 c 0 4 6 b 5 6 4 1 c d 0 5 0 e 6 b 9 d 4 6 5 6 5 4 0 6 5 6 a 5 0 b d 0 e 5 d 6 e 4 a e c d 6 9 d d 6 1 6 b 6 c 5 1 0 e 5 6 0 e d c 0 0 4 b 5 6 d 9 5 6 6 5 4 9 4 0 0 0 6 2 c a
9 0 5 c c e 1 1 b a d c 2 0 c 1 0 3 a 0 d 3 0 e 1 e 1 1 b 2 2 b 0 a 4 d 3 2 4 a 4 9 5 1 c 4 0 2 0 9 0 c 5 4 0 3 2 3 c a a d 6 3 2 4 d 0 0 c d 0 4 0 6 5 2 4 2 9 b c 3 a c 1 0 a c 4 9 b 9 3 c 4 5 4 3 e 5 a b 4 0 3 b 1 0 b 9 0 4 c 0 b 0 2 9 b d e 9 2 5 4 4 0
a a 9 9 0 9 c 1 2 0 9 4 1 b 1 4 9 0 2 0 2 c 6 d 5 5 0 0 9 4 a a 2 1 e 9 6 2 0 1 3 2 2 3 6 0 4 3 4 0 0 c 2 c 1 1 4 0 0 c 5 2 6 2 2 2 9 6 1 3 c 0 2 4 a 3 b 4 0 2 e 1 4 a 1 a 2 c a 3 5 9 5 a 4 2 4 2 5 0 6 6 1 d 3 0 b a 1 9 2 4 1 1 9 6 6 1 9 e 2 4 2 c 0 0 0 3
0 9 b 0 0 9 0 5 c 0 e 2 0 0 5 4 3 5 b 0 b d 0 9 9 3 b 2 4 4 0 9 0 5 4 c 5 4 5 a a 2 0 1 0 3 a a 0 2 3 a 3 0 a 3 9 0 0 0 5 1 0 1 0 2 5 a a a c 2 a 9 e 0 3 c 5 9 5 0 3 c 5 9 4 2 a 2 2 c a 9 b 2 3 0 4 4 3 6 1 4 1 5 2 4 9 5 9 4 3 0 4 1 5 5 0 0 2 d 5 2 0 2 1 4
a 6 a 0 6 6 6 5 0 b b 4 4 6 6 6 6 2 1 5 9 e c c e 6 5 4 3 6 e 9 6 1 4 9 d 5 4 6 3 9 4 6 5 6 9 6 0 a 6 6 5 1 4 6 6 6 6 9 3 5 9 6 a 0 d a 6 5 6 3 6 9 0 4 6 0 1 4 0 6 5 d 0 e 3 2 2 3 9 e b 5 6 4 1 c 6 9 3 2 6 4 0 6 4 3 0 e e 6 0 4 c 2 1 5 6 9 6 4 e 2 a 6 6 6
4 0 1 5 a 9 4 a 9 b c 0 0 c 4 0 9 3 a d 0 1 4 6 4 2 1 4 5 a d 2 4 0 5 0 0 9 0 5 9 b 1 1 4 b 2 4 b 2 2 b a a 4 4 2 2 a 0 4 2 5 5 6 9 5 1 1 a a 2 3 1 e 5 9 2 1 4 d 0 5 0 9 e 9 b d 0 2 c 3 0 1 1 4 d c 1 0 3 9 c c 0 0 0 0 0 1 2 1 9 5 6 5 6 b c 1 c c 0 0 2 c 4
3 1 e 0 5 4 d 0 2 c d 1 3 2 a 0 2 4 6 c 2 b 6 1 d 5 1 5 a d a c 5 1 b 3 4 1 4 9 1 d 0 9 9 b 9 5 3 6 2 5 1 a 1 5 0 0 3 c 5 5 6 2 9 5 6 6 0 c a 4 5 d a a 9 d 0 5 a 1 4 9 c b 0 0 d 0 5 6 a a 3 0 2 b 6 3 4 6 c c b d 3 3 6 6 1 5 0 d 6 5 2 0 c c 5 1 3 9 5 0 9 9
6 4 c 3 3 c c e 6 1 a 5 6 6 c 1 e 9 6 e e 4 4 9 b c 3 c d e c 5 4 4 0 6 4 5 d 0 0 d 0 b b e 4 1 6 4 e 6 d 0 2 0 5 5 3 0 e 2 6 6 b 5 6 6 2 3 0 6 e b 9 3 e b 2 5 c c 0 d 9 4 6 1 a e 6 6 5 9 9 e 5 b e 0 4 b a e c e 5 1 6 6 5 6 9 c 4 d c a d 6 3 0 4 c 6 9 1 e
e 2 a b 5 6 3 2 5 a e 6 a 3 4 b d e 6 e 4 4 4 0 0 4 2 1 6 c 5 a b 6 1 1 3 2 4 6 a 1 c c b 2 4 9 b 5 3 d e 9 a 0 e 4 3 3 5 5 c 0 a e 0 2 c 4 9 9 3 4 d 9 5 4 b b 5 4 3 6 6 0 c a 6 0 a a b c 0 2 b 6 d 6 a a 4 0 0 0 0 c 9 1 0 b 9 6 2 5 3 0 b d 2 d 4 b c d 2 2
a 0 c 1 a 2 c 3 3 0 9 1 0 1 b b c 1 d a a 1 a b 0 0 2 0 3 4 1 2 c 4 d 9 4 0 0 0 3 0 0 a 9 a a b 2 2 a 1 1 5 b a a 0 b b 9 c 3 4 2 c b c 0 2 1 9 2 0 a 9 9 d 3 a 9 0 a 1 0 3 a c 0 9 2 2 5 9 9 1 c 3 c b c 1 9 5 0 2 b 2 c c 0 b 4 2 5 4 b 4 2 9 4 0 1 c a 3 0 9
b 0 c c c 4 2 d 9 0 a 1 9 0 3 1 0 2 1 0 4 2 1 0 a 0 c 2 1 9 0 c 0 5 0 2 0 0 1 3 0 a 2 a b 0 0 a 1 b 5 4 2 c 9 4 a 1 2 4 b a 3 c d 6 5 9 0 2 c 0 9 b 0 a 4 e 3 9 1 c 3 1 0 1 9 b 2 1 9 b 5 1 c a 4 b 6 4 0 2 a a 4 5 3 4 a 0 0 1 a 4 c 2 4 d 0 1 a d 0 a 9 2 2 1
4 3 0 4 e 5 4 d d d 3 5 0 4 9 b b 6 a 0 0 1 3 9 1 1 0 3 c e 2 4 1 4 4 3 5 c 4 c b c 4 0 2 b 6 9 e 2 b d 1 6 d d 6 1 0 0 0 4 6 e d 6 0 6 a a 0 3 5 b 0 0 4 d 6 5 4 6 e 4 1 1 5 d 2 6 6 2 5 4 0 d 1 2 6 e 0 5 d 4 0 c b 6 e 4 6 6 4 d 6 3 6 3 b 4 9 0 0 c 5 5 2 d
