232c
242e
2286
2337
23d8
205c
245a
2214
220e
2418
225f
234c
2562
2296
242b
2360
2392
2227
20be
220a
23ac
21ea
2213
2237
2316
22de
247b
22f9
23a4
226f
23d6
227e
24cf
2240
2123
234e
22e7
2307
22ff
2375
2396
22cb
25f2
2565
2274
245e
225c
2419
227d
2324
230c
2274
2412
2289
240d
214f
24d4
2327
22d1
240d
21a0
21ce
2230
22af
2184
21d3
214c
21f7
25b1
23ac
22cb
2470
22f9
234b
21ed
221f
2183
21fd
228c
2309
211a
22fd
217d
226b
2260
2419
2389
253e
2370
22a2
23a1
2351
1f6e
24d1
2412
2303
23c6
23c2
218c
2197
220f
21db
251e
223a
234d
2219
2245
2481
2382
21b7
23ad
2380
2441
236c
22cc
22c0
21cc
226b
231d
222e
22fc
2109
22d1
247c
23d3
2579
2455
22bb